[PAD]	0
[UNK]	0
[BOS]	0
[EOS]	0
[SEP]	0
[CLS]	0
[MASK]	0
ᄏᄏ	-0
▁?	-1
▁나	-2
▁자	-3
▁!	-4
▁자기	-5
ᄏᄏᄏᄏ	-6
▁아	-7
▁이	-8
▁그	-9
▁다	-10
▁ᄏᄏᄏᄏ	-11
▁.	-12
▁오	-13
▁웅	-14
▁안	-15
▁먹	-16
▁애	-17
▁응	-18
▁가	-19
▁잘	-20
▁일	-21
▁애기	-22
▁어	-23
도착	-24
어요	-25
▁내	-26
▁지	-27
▁ᄏᄏ	-28
▁이제	-29
▁도착	-30
▁집	-31
▁하	-32
▁밥	-33
는데	-34
▁끝	-35
▁보	-36
~~	-37
ᅲᅲ	-38
▁들	-39
▁있	-40
▁시	-41
▁사	-42
▁너	-43
▁응응	-44
▁네	-45
▁뭐	-46
▁ᄏᄏᄏᄏᄏᄏᄏᄏ	-47
▁나도	-48
▁알	-49
▁고	-50
▁오늘	-51
▁저	-52
고싶	-53
▁말	-54
▁들어	-55
▁현	-56
▁연	-57
고있	-58
▁그래	-59
▁기	-60
▁조	-61
▁왜	-62
▁마	-63
해서	-64
했어	-65
▁1	-66
니까	-67
▁쉬	-68
▁바	-69
▁현지	-70
▁수	-71
▁다녀	-72
▁출	-73
▁같	-74
▁얼	-75
▁공	-76
▁ᄏᄏᄏᄏᄏᄏ	-77
▁지금	-78
▁아니	-79
▁미	-80
▁일어	-81
▁ᅲᅲ	-82
▁더	-83
▁한	-84
에서	-85
▁좀	-86
▁전	-87
▁좋	-88
시간	-89
▁내가	-90
으면	-91
▁우	-92
▁끝나	-93
▁담	-94
▁공부	-95
▁씻	-96
▁진	-97
다가	-98
▁난	-99
할게	-100
갈게	-101
니다	-102
▁밥먹	-103
는거	-104
▁ᄏᄏᄏᄏᄏ	-105
▁만	-106
어서	-107
▁없	-108
▁생	-109
▁맛	-110
▁같이	-111
▁이따	-112
▁전화	-113
▁얼른	-114
▁못	-115
▁너무	-116
이랑	-117
▁잉	-118
▁연락	-119
▁준	-120
▁카	-121
▁진짜	-122
▁피	-123
▁엄	-124
▁무	-125
▁해	-126
가요	-127
장님	-128
이야	-129
▁괜	-130
▁수업	-131
▁출발	-132
▁화	-133
▁그럼	-134
▁ᄋ	-135
까지	-136
▁맛있	-137
▁얘	-138
▁담배	-139
▁2	-140
▁3	-141
간다	-142
었어	-143
▁대	-144
했어요	-145
▁늦	-146
▁머	-147
하구	-148
▁괜찮	-149
야지	-150
겠다	-151
한테	-152
▁생각	-153
점장님	-154
▁학	-155
▁거	-156
는중	-157
으러	-158
하고	-159
▁ᄒ	-160
▁많	-161
▁부	-162
올게	-163
▁일찍	-164
▁ᄏ	-165
▁배	-166
▁강	-167
해요	-168
▁얘기	-169
▁일어나	-170
▁자기야	-171
▁갈	-172
▁귀	-173
▁오케	-174
▁언	-175
▁근	-176
▁잠	-177
▁바로	-178
▁모	-179
하게	-180
다고	-181
라고	-182
▁자기가	-183
가서	-184
▁자기는	-185
와서	-186
▁5	-187
▁노	-188
▁맞	-189
▁ᄏᄏᄏᄏᄏᄏᄏ	-190
▁정	-191
▁아직	-192
▁열	-193
▁ᅲ	-194
▁알겠	-195
▁어디	-196
구실	-197
▁기다	-198
▁끝났	-199
▁먹어	-200
▁구	-201
▁강의	-202
시에	-203
▁다시	-204
▁우리	-205
▁또	-206
▁연구실	-207
▁ᄏᄏᄏᄏᄏᄏᄏᄏᄏᄏᄏᄏ	-208
왔어	-209
하철	-210
▁비	-211
▁나는	-212
▁사랑	-213
▁지하철	-214
▁여	-215
거야	-216
▁남	-217
하면	-218
려고	-219
으로	-220
있어	-221
▁아라	-222
▁예	-223
▁근데	-224
▁시간	-225
~~~	-226
▁누	-227
아서	-228
▁나가	-229
을게	-230
▁4	-231
퇴근	-232
▁학교	-233
▁슬	-234
▁와	-235
려구	-236
▁다녀와	-237
▁씻고	-238
▁혼	-239
▁괜찮아	-240
▁놀	-241
▁ᄏᄏᄏ	-242
▁힘	-243
▁만나	-244
▁많이	-245
▁퇴근	-246
▁주	-247
심히	-248
▁ᄒᄒ	-249
▁말해	-250
구나	-251
▁10	-252
▁고마	-253
▁언제	-254
▁챙	-255
고있어	-256
▁갔	-257
▁그냥	-258
▁집에	-259
▁애기야	-260
▁신	-261
▁할	-262
▁일어났	-263
▁점장님	-264
▁개	-265
거같	-266
▁고생	-267
▁울	-268
▁출근	-269
▁에	-270
▁장	-271
▁엄마	-272
이네	-273
▁보고싶	-274
▁도착했어	-275
▁동	-276
▁히	-277
▁쉬는	-278
▁그러	-279
▁네에	-280
▁사랑해	-281
▁방	-282
▁야	-283
▁다행	-284
▁받	-285
▁먹고	-286
▁미안	-287
▁저나	-288
ᄉᄇ	-289
▁존	-290
▁나두	-291
▁들어가	-292
▁도착했어요	-293
▁쉅	-294
▁엉	-295
▁먼	-296
하지	-297
▁넘	-298
▁힝	-299
▁밥먹으러	-300
분에	-301
이다	-302
하는	-303
▁먹구	-304
먹어	-305
▁내일	-306
▁빨	-307
▁두	-308
겠네	-309
들어	-310
▁애들	-311
▁좋아	-312
▁준비	-313
▁하나	-314
▁먹고싶	-315
▁몇	-316
▁쉬는시간	-317
▁돌	-318
▁민	-319
▁ᄏᄏᄏᄏᄏᄏᄏᄏᄏᄏ	-320
시반	-321
▁존나	-322
▁혼자	-323
▁저녁	-324
▁다녀오	-325
▁도	-326
▁올	-327
▁먹을	-328
▁슬슬	-329
▁준서	-330
▁다녀올게	-331
▁카톡	-332
왔어요	-333
▁고마워	-334
▁드	-335
에요	-336
▁엄청	-337
인데	-338
쿄쿄	-339
▁데	-340
▁약	-341
▁히히	-342
▁6	-343
▁물	-344
▁쟈	-345
이팅	-346
했는데	-347
해줘	-348
▁먼저	-349
▁어제	-350
▁있어	-351
▁챙겨	-352
▁곧	-353
▁불	-354
▁재	-355
▁늦게	-356
▁보고	-357
▁쿄쿄	-358
▁눈	-359
▁스	-360
▁편	-361
원이	-362
▁방금	-363
▁집가	-364
▁넹	-365
▁천	-366
볼게	-367
▁ᄉᄇ	-368
▁갈게	-369
▁조심	-370
▁열심히	-371
▁화이팅	-372
▁ᄀ	-373
▁맛있게	-374
요일	-375
▁사람	-376
▁자기랑	-377
▁간	-378
▁금	-379
▁벌	-380
가지	-381
걱정	-382
▁보내	-383
▁담배피	-384
▁원	-385
▁인	-386
끝나	-387
세요	-388
▁ᄋᄋ	-389
▁걱정	-390
▁푹	-391
▁흠	-392
▁웅야	-393
▁별	-394
▁서	-395
▁석	-396
▁속	-397
기로	-398
러가	-399
▁민정	-400
▁조아	-401
▁카페	-402
▁글	-403
렇게	-404
어용	-405
갑니다	-406
▁ᄏᄏᄏᄏᄏᄏᄏᄏᄏ	-407
▁걍	-408
▁키	-409
이라	-410
자나	-411
▁30	-412
▁쟈기	-413
▁날	-414
▁타	-415
나보	-416
은데	-417
으니까	-418
▁따	-419
▁상	-420
자기	-421
친구	-422
하네	-423
▁반	-424
▁제	-425
거같아	-426
▁매	-427
▁빵	-428
▁쉴	-429
는즁	-430
시쯤	-431
시퍼	-432
은거	-433
▁좀만	-434
▁기다리	-435
▁계	-436
▁후	-437
▁여기	-438
▁듣	-439
▁싶	-440
▁충	-441
▁기분	-442
▁석계	-443
▁시발	-444
▁그래도	-445
▁쓰	-446
천히	-447
▁배고	-448
▁자기도	-449
▁걸	-450
▁버	-451
▁코	-452
먹고	-453
이써	-454
▁나랑	-455
▁공부하	-456
▁천천히	-457
▁ᄂ	-458
▁돈	-459
먹을	-460
면서	-461
보고	-462
▁갔다	-463
할게요	-464
▁집에서	-465
▁다녀와요	-466
▁심	-467
▁으	-468
▁빨리	-469
▁이거	-470
▁일단	-471
▁장원이	-472
▁7	-473
▁되	-474
▁잤	-475
정도	-476
줄게	-477
▁피곤	-478
▁돼	-479
▁입	-480
▁포	-481
▁11	-482
▁그런	-483
▁무슨	-484
▁자고	-485
▁봐	-486
다구	-487
보자	-488
▁구래	-489
▁모르	-490
▁화장	-491
ᄉᄏ	-492
▁감	-493
▁갠	-494
▁싫	-495
▁벌써	-496
▁교	-497
▁앙	-498
▁휴	-499
그래	-500
리고	-501
▁간다	-502
▁물어	-503
▁잠깐	-504
▁재밌	-505
▁일어나서	-506
▁8	-507
▁살	-508
는디	-509
먹구	-510
수있	-511
▁강의실	-512
▁끝나서	-513
▁끝났어	-514
▁도착해	-515
▁한시간	-516
▁도착해서	-517
▁왤	-518
▁호	-519
겠지	-520
대로	-521
았어	-522
▁ᄏᄉᄏ	-523
▁끝나구	-524
▁미안해	-525
▁것	-526
▁엥	-527
▁완	-528
▁확	-529
▁흐	-530
드폰	-531
▁가요	-532
▁그거	-533
▁왤케	-534
▁조금	-535
시까지	-536
▁화장실	-537
▁녜	-538
▁술	-539
▁않	-540
▁핸	-541
▁했	-542
해야	-543
▁노래	-544
▁다음	-545
▁어때	-546
▁오늘은	-547
▁핸드폰	-548
▁들어갈게	-549
▁추	-550
▁ᄂᄂ	-551
▁대답	-552
▁속상	-553
▁하고	-554
▁그래요	-555
▁먹었어	-556
▁넵	-557
▁몰	-558
▁음	-559
오면	-560
홧팅	-561
▁12	-562
▁하구	-563
▁일어나면	-564
▁조심해서	-565
▁건	-566
▁범	-567
겠어	-568
잖아	-569
차나	-570
▁뭐하	-571
입니다	-572
▁아니면	-573
▁오케잉	-574
▁부점장님	-575
▁문	-576
▁옷	-577
▁요	-578
아니	-579
해용	-580
▁얼굴	-581
▁게	-582
▁꼭	-583
▁당	-584
▁목	-585
▁짐	-586
▁찾	-587
▁케	-588
▁통	-589
▁헤	-590
와요	-591
이나	-592
▁끝내	-593
나보네	-594
▁끝나면	-595
▁과	-596
▁소	-597
▁웃	-598
밖에	-599
전에	-600
해보	-601
▁ᄋᄏ	-602
▁나갈	-603
▁돌곶	-604
▁마니	-605
▁범석	-606
▁홧팅	-607
▁힘내	-608
이에요	-609
▁낼	-610
▁앉	-611
▁헉	-612
놓고	-613
도돼	-614
한거	-615
▁가서	-616
▁미친	-617
▁오잉	-618
▁손	-619
▁필	-620
인가	-621
▁우산	-622
▁끝나고	-623
▁민정이	-624
▁ᄃ	-625
▁김	-626
▁온	-627
▁치	-628
▁태	-629
다녀	-630
에용	-631
텐데	-632
한다	-633
▁금방	-634
▁먹자	-635
▁만나서	-636
▁실	-637
▁양	-638
▁왔	-639
것같	-640
라구	-641
애기	-642
해주	-643
▁가져	-644
▁귀여	-645
▁먹었	-646
▁미아	-647
▁힘들	-648
▁돌곶이	-649
▁알겠어요	-650
▁뒤	-651
▁맘	-652
▁짜	-653
려서	-654
았다	-655
여서	-656
▁오픈	-657
▁하루	-658
습니다	-659
~~~~	-660
▁그래용	-661
▁들어가요	-662
▁둘	-663
▁융	-664
▁토	-665
거임	-666
나봐	-667
해써	-668
▁마감	-669
▁시켜	-670
▁시험	-671
▁해서	-672
하는거	-673
▁나왔어	-674
▁아니야	-675
▁조심히	-676
▁자기한테	-677
▁9	-678
▁함	-679
수도	-680
하자	-681
▁계속	-682
▁누워	-683
▁데리	-684
▁아냐	-685
▁없어	-686
▁한번	-687
▁그래유	-688
▁오늘도	-689
▁집가서	-690
고있을게	-691
▁일어났어	-692
▁~	-693
까봐	-694
부터	-695
줘서	-696
지마	-697
지말	-698
지않	-699
ᄏᄏᄏ	-700
▁별로	-701
▁아까	-702
▁아아	-703
▁안나	-704
하는데	-705
합니다	-706
▁나와서	-707
▁밥먹고	-708
▁아라쪄	-709
▁오케이	-710
▁이따봐	-711
고있어요	-712
▁전화할게	-713
▁역	-714
▁유	-715
▁점	-716
▁중	-717
수님	-718
▁가야	-719
▁거기	-720
▁매장	-721
▁머리	-722
▁뭐먹	-723
▁안되	-724
▁자깅	-725
▁친구	-726
▁코노	-727
▁집도착	-728
▁보고싶어	-729
▁때	-730
▁베	-731
▁빠	-732
▁죽	-733
는게	-734
사람	-735
이면	-736
했다	-737
▁40	-738
▁시작	-739
▁어머	-740
▁키키	-741
▁피시	-742
하구있	-743
하니까	-744
▁기다려	-745
▁노래방	-746
▁ᄏᄏᄏᄏᄏᄏᄏᄏᄏᄏᄏ	-747
▁디	-748
▁앞	-749
▁얍	-750
▁졸	-751
났어	-752
분쯤	-753
지만	-754
▁그럴	-755
▁나와	-756
▁나왔	-757
▁내려	-758
▁다른	-759
▁아침	-760
▁알람	-761
▁알려	-762
▁알바	-763
▁완전	-764
▁있을	-765
▁자꾸	-766
고싶다	-767
고싶어	-768
▁그래서	-769
▁나가요	-770
▁잘다녀	-771
▁피시방	-772
▁됐	-773
▁뭔	-774
▁쉰	-775
▁파	-776
▁회	-777
느라	-778
새끼	-779
할때	-780
▁20	-781
▁50	-782
▁누구	-783
▁예뻐	-784
▁오래	-785
▁확인	-786
들이랑	-787
려구요	-788
▁갠차나	-789
▁나한테	-790
▁데리러	-791
▁생각해	-792
▁엄마집	-793
▁고생했어	-794
▁보고시퍼	-795
▁연락할게	-796
▁니	-797
▁달	-798
▁막	-799
▁메	-800
▁성	-801
▁세	-802
▁최	-803
니당	-804
먹었	-805
이가	-806
하다	-807
▁게임	-808
▁뭐야	-809
▁심심	-810
▁어케	-811
▁왔어	-812
▁통화	-813
는거야	-814
▁이따가	-815
▁자기두	-816
▁지금은	-817
▁발	-818
가유	-819
갈까	-820
소리	-821
이욤	-822
해유	-823
했네	-824
▁ᄀᄎ	-825
▁귀엽	-826
▁그치	-827
▁쉬어	-828
▁아이	-829
▁오야	-830
▁교수님	-831
▁그렇게	-832
▁지하철역	-833
ᄏᄏᄏᄏᄏᄏᄏᄏ	-834
^^	-835
▁결	-836
▁몸	-837
냐고	-838
욤아	-839
▁가자	-840
▁같아	-841
▁거의	-842
▁나오	-843
▁알았	-844
▁올라	-845
▁원준	-846
▁찾아	-847
▁걔	-848
▁월	-849
▁찍	-850
▁커	-851
▁허	-852
안해	-853
▁남자	-854
▁당연	-855
▁보자	-856
▁신경	-857
▁태릉	-858
가지고	-859
이니까	-860
▁가는중	-861
▁밥먹구	-862
▁재밌게	-863
▁출발해요	-864
▁먹고싶은거	-865
▁깨	-866
▁설	-867
▁의	-868
갔다	-869
고야	-870
더니	-871
보다	-872
지도	-873
▁너가	-874
▁먹으	-875
▁아프	-876
▁어떤	-877
▁열차	-878
▁이해	-879
▁ᄋᄏᄋ	-880
▁알겠어	-881
▁다행이다	-882
▁점장님이	-883
▁ᅳ	-884
▁넌	-885
▁느	-886
▁떡	-887
▁삼	-888
▁선	-889
▁엘	-890
▁좌	-891
▁차	-892
는지	-893
레기	-894
오케	-895
▁그렇	-896
▁안돼	-897
▁안아	-898
▁정말	-899
▁짜증	-900
▁하앙	-901
야겠다	-902
▁공부중	-903
▁쓰레기	-904
▁있으면	-905
▁갑	-906
▁깼	-907
▁냉	-908
▁답	-909
▁탔	-910
▁항	-911
▁형	-912
가용	-913
게요	-914
길래	-915
무니	-916
이지	-917
준비	-918
찌개	-919
차피	-920
▁가구	-921
▁마님	-922
▁밖에	-923
▁밥은	-924
▁얼마	-925
▁웅웅	-926
▁먹으러	-927
▁아라써	-928
▁어차피	-929
▁잘했어	-930
▁저녁에	-931
▁다녀오께	-932
▁연락해줘	-933
▁일어났어요	-934
▁백	-935
▁읽	-936
▁짱	-937
▁참	-938
▁창	-939
건데	-940
것도	-941
더라	-942
없어	-943
▁뭐해	-944
▁바빠	-945
▁빨래	-946
▁안가	-947
▁이게	-948
▁자래	-949
▁정신	-950
▁좋은	-951
▁가고싶	-952
▁어디쯤	-953
▁있어서	-954
▁있을게	-955
▁현지는	-956
ᄏᄏᄏᄏᄏ	-957
▁ᄋᄏᄋᄏ	-958
▁ᄅ	-959
▁넣	-960
▁붙	-961
▁새	-962
▁영	-963
▁옆	-964
▁혹	-965
네요	-966
던데	-967
렸어	-968
서관	-969
위치	-970
의점	-971
▁맞아	-972
▁씻구	-973
▁아닝	-974
▁약수	-975
▁얍얍	-976
▁이미	-977
▁있었	-978
요일에	-979
이에용	-980
▁나갈게	-981
▁다먹고	-982
▁도서관	-983
▁도착했	-984
▁편의점	-985
▁했는데	-986
▁오케오케	-987
▁닭	-988
▁딱	-989
▁박	-990
▁볼	-991
꺼야	-992
무로	-993
자고	-994
처럼	-995
한데	-996
▁갈아	-997
▁더착	-998
▁돌아	-999
▁안남	-1000
▁앉아	-1001
▁잘못	-1002
▁좌기	-1003
▁케케	-1004
▁항상	-1005
기전에	-1006
드위치	-1007
시반에	-1008
하고있	-1009
▁가야지	-1010
▁말해줘	-1011
▁먹어요	-1012
▁배고프	-1013
▁쉬어요	-1014
▁애기는	-1015
▁어무니	-1016
▁충무로	-1017
▁굳	-1018
▁샌	-1019
▁위	-1020
▁읭	-1021
▁잔	-1022
▁책	-1023
갔어	-1024
보내	-1025
을거	-1026
중에	-1027
하러	-1028
▁ᄋᄌ	-1029
▁동민	-1030
▁받아	-1031
▁안해	-1032
▁이런	-1033
▁잘자	-1034
▁현정	-1035
▁흠냐	-1036
었는데	-1037
▁갑니다	-1038
▁몇시에	-1039
▁시간이	-1040
▁없어서	-1041
▁현지가	-1042
▁다행이네	-1043
▁쉬는시간에	-1044
▁ᄏᄏᄏᄏᄏᄏᄏᄏᄏᄏᄏᄏᄏ	-1045
zz	-1046
▁빼	-1047
▁취	-1048
나서	-1049
보여	-1050
봤어	-1051
하나	-1052
한대	-1053
▁고민	-1054
▁그게	-1055
▁그때	-1056
▁기억	-1057
▁동네	-1058
▁몰라	-1059
▁바보	-1060
▁버스	-1061
▁보여	-1062
▁아파	-1063
▁여자	-1064
▁오면	-1065
▁이번	-1066
▁치킨	-1067
▁했어	-1068
▁헤어	-1069
▁넘어서	-1070
▁먹으면	-1071
▁배고파	-1072
▁어디야	-1073
▁편하게	-1074
▁들어갈게용	-1075
▁ᄌ	-1076
▁겅	-1077
▁경	-1078
▁님	-1079
▁병	-1080
▁본	-1081
▁프	-1082
구만	-1083
국수	-1084
들이	-1085
시지	-1086
워서	-1087
조아	-1088
주고	-1089
해죠	-1090
ᅲᅲᅲ	-1091
▁그랬	-1092
▁끝날	-1093
▁놀아	-1094
▁아닌	-1095
▁아무	-1096
▁안고	-1097
▁안늦	-1098
▁커피	-1099
▁학식	-1100
▁혹시	-1101
▁갑자기	-1102
▁귀욤아	-1103
▁아직도	-1104
▁어머니	-1105
▁담배피고	-1106
▁보고싶다	-1107
▁샌드위치	-1108
▁알겠어용	-1109
▁다녀올게요	-1110
▁겜	-1111
▁똑	-1112
▁라	-1113
▁써	-1114
가자	-1115
는다	-1116
야징	-1117
에는	-1118
을까	-1119
이글	-1120
지고	-1121
지현	-1122
케줄	-1123
하시	-1124
▁겅부	-1125
▁글서	-1126
▁노노	-1127
▁다들	-1128
▁담주	-1129
▁대박	-1130
▁마지	-1131
▁맞지	-1132
▁사다	-1133
▁시켰	-1134
▁에바	-1135
▁오랜	-1136
▁으응	-1137
▁잤어	-1138
것같아	-1139
분정도	-1140
하다가	-1141
▁ᅲᅲᅲ	-1142
▁귀여워	-1143
▁미아리	-1144
▁어디서	-1145
▁도착해쓔	-1146
▁씻고올게	-1147
ᄏᄏᄏᄏᄏᄏ	-1148
▁다녀오세요	-1149
▁출발할게요	-1150
ᅮᅮ	-1151
▁까	-1152
▁멀	-1153
▁샀	-1154
▁용	-1155
▁적	-1156
▁쿠	-1157
다니	-1158
된다	-1159
생각	-1160
시켜	-1161
야돼	-1162
요미	-1163
이용	-1164
좌좌	-1165
줘요	-1166
할까	-1167
▁가는	-1168
▁가방	-1169
▁과제	-1170
▁귀찮	-1171
▁노력	-1172
▁맞춰	-1173
▁안먹	-1174
▁알아	-1175
▁애깅	-1176
▁엘가	-1177
▁원래	-1178
▁이상	-1179
▁일케	-1180
▁저도	-1181
▁지각	-1182
대찌개	-1183
집에서	-1184
▁누구랑	-1185
▁다행이	-1186
▁마지막	-1187
▁엄마가	-1188
▁왔어요	-1189
▁울애기	-1190
▁이렇게	-1191
▁있는데	-1192
▁있어요	-1193
▁정지현	-1194
하구이써	-1195
하구있어	-1196
▁고마워요	-1197
▁나왔어요	-1198
▁범석이랑	-1199
▁도착했어용	-1200
▁검	-1201
▁꺄	-1202
▁분	-1203
▁삭	-1204
▁암	-1205
▁옴	-1206
▁외	-1207
▁작	-1208
▁줄	-1209
▁초	-1210
▁티	-1211
동안	-1212
라탕	-1213
만에	-1214
볶이	-1215
셔서	-1216
셨어	-1217
온다	-1218
와용	-1219
이래	-1220
이였	-1221
이요	-1222
입구	-1223
있을	-1224
지는	-1225
하기	-1226
하니	-1227
▁ᄅᄋ	-1228
▁남은	-1229
▁넣어	-1230
▁눈치	-1231
▁데려	-1232
▁듣고	-1233
▁미쳤	-1234
▁아주	-1235
▁저번	-1236
▁진심	-1237
▁충전	-1238
▁피방	-1239
끝나구	-1240
달라고	-1241
봤는데	-1242
이어서	-1243
있어요	-1244
주세요	-1245
▁가는즁	-1246
▁갔다가	-1247
▁나가서	-1248
▁나중에	-1249
▁내새끼	-1250
▁마라탕	-1251
▁쉬다가	-1252
▁스케줄	-1253
▁있다가	-1254
▁힘내요	-1255
▁괜찮아요	-1256
▁도착하면	-1257
▁맛있는거	-1258
▁부대찌개	-1259
▁출발할게	-1260
▁급	-1261
▁꿑	-1262
▁번	-1263
▁왱	-1264
▁절	-1265
▁풀	-1266
갈때	-1267
너무	-1268
뒤에	-1269
려규	-1270
버렸	-1271
야되	-1272
이고	-1273
이는	-1274
이스	-1275
잤어	-1276
할거	-1277
해라	-1278
했지	-1279
▁가면	-1280
▁간단	-1281
▁갈까	-1282
▁고맙	-1283
▁남았	-1284
▁네엡	-1285
▁마음	-1286
▁몇시	-1287
▁무서	-1288
▁병원	-1289
▁빠르	-1290
▁삭제	-1291
▁싫어	-1292
▁아마	-1293
▁예쁘	-1294
▁와서	-1295
▁있는	-1296
▁잠만	-1297
▁저는	-1298
▁회기	-1299
가는중	-1300
▁가보자	-1301
▁갈게요	-1302
▁기다릴	-1303
▁끝내고	-1304
▁미아내	-1305
▁베이글	-1306
▁아좌좌	-1307
▁아침에	-1308
▁전화해	-1309
▁제대로	-1310
▁갔다올게	-1311
▁다녀와용	-1312
▁들어가유	-1313
▁마니먹어	-1314
▁전화해줘	-1315
30	-1316
▁꿀	-1317
▁될	-1318
▁떠	-1319
▁멍	-1320
▁식	-1321
▁옹	-1322
▁처	-1323
▁홀	-1324
같이	-1325
네용	-1326
는고	-1327
다닥	-1328
두돼	-1329
보쟈	-1330
세용	-1331
어유	-1332
좋아	-1333
타고	-1334
▁갈거	-1335
▁그건	-1336
▁깼어	-1337
▁날씨	-1338
▁누가	-1339
▁늦을	-1340
▁머가	-1341
▁미리	-1342
▁발표	-1343
▁쉰다	-1344
▁안받	-1345
▁왜저	-1346
▁저기	-1347
▁챙겼	-1348
보니까	-1349
수도있	-1350
없어서	-1351
있다가	-1352
있으면	-1353
해야지	-1354
▁메시지	-1355
▁좋겠다	-1356
▁끝났어요	-1357
▁맛있겠다	-1358
▁이따봐용	-1359
▁밥먹으러가요	-1360
▁덕	-1361
▁떨	-1362
▁망	-1363
▁밍	-1364
▁블	-1365
▁순	-1366
▁싸	-1367
▁운	-1368
▁웹	-1369
▁질	-1370
▁청	-1371
걸로	-1372
난다	-1373
네유	-1374
든지	-1375
마자	-1376
문에	-1377
버려	-1378
스크	-1379
없이	-1380
욜에	-1381
이크	-1382
졌어	-1383
할래	-1384
▁15	-1385
▁갈때	-1386
▁고기	-1387
▁공뷰	-1388
▁글쿤	-1389
▁김치	-1390
▁네엥	-1391
▁두개	-1392
▁배달	-1393
▁배불	-1394
▁신나	-1395
▁씻어	-1396
▁아뇽	-1397
▁아빠	-1398
▁어떻	-1399
▁어이	-1400
▁어쩔	-1401
▁오구	-1402
▁오냐	-1403
▁오디	-1404
▁웅응	-1405
▁인사	-1406
▁자리	-1407
▁좋지	-1408
▁포장	-1409
▁피고	-1410
▁흐흐	-1411
고있었	-1412
렸다가	-1413
먹을래	-1414
분까지	-1415
시반쯤	-1416
있어서	-1417
했어용	-1418
▁같아서	-1419
▁떡볶이	-1420
▁맛있어	-1421
▁먹을게	-1422
▁무슨일	-1423
▁범석이	-1424
▁원준이	-1425
▁자다가	-1426
▁짜증나	-1427
▁현지랑	-1428
▁대답안해	-1429
▁들어가용	-1430
▁연락해요	-1431
▁오랜만에	-1432
▁출근해요	-1433
▁들어갈게요	-1434
▁연락할게요	-1435
▁ᄏᄏᄏᄏᄏᄏᄏᄏᄏᄏᄏᄏᄏᄏᄏ	-1436
;;	-1437
▁(	-1438
▁ᄆ	-1439
▁골	-1440
▁긍	-1441
▁땡	-1442
▁믿	-1443
▁씹	-1444
▁임	-1445
▁축	-1446
▁큰	-1447
▁틀	-1448
▁행	-1449
▁헐	-1450
가는	-1451
게따	-1452
그러	-1453
냐구	-1454
버리	-1455
인디	-1456
즈아	-1457
지게	-1458
▁가유	-1459
▁개웃	-1460
▁건대	-1461
▁구랭	-1462
▁그려	-1463
▁김밥	-1464
▁너는	-1465
▁너도	-1466
▁맘에	-1467
▁쉬러	-1468
▁시러	-1469
▁아쉽	-1470
▁아픈	-1471
▁안에	-1472
▁어딘	-1473
▁역시	-1474
▁오이	-1475
▁와요	-1476
▁우잉	-1477
▁웹툰	-1478
▁잠들	-1479
▁최고	-1480
▁충분	-1481
슙니다	-1482
있는데	-1483
하느라	-1484
하면서	-1485
하지마	-1486
한다고	-1487
▁그러면	-1488
▁기다류	-1489
▁나가용	-1490
▁다먹구	-1491
▁담배필	-1492
▁먹을래	-1493
▁보니까	-1494
▁삭제된	-1495
▁아라쓔	-1496
▁애들이	-1497
▁여기서	-1498
▁조금만	-1499
▁돌곶이로	-1500
▁연구실도착	-1501
▁집가고싶다	-1502
▁메시지입니다	-1503
▁ᅦ	-1504
▁껴	-1505
▁땀	-1506
▁면	-1507
▁빡	-1508
▁산	-1509
▁잡	-1510
▁쪼	-1511
▁크	-1512
▁환	-1513
같아	-1514
거든	-1515
까스	-1516
니깐	-1517
도록	-1518
린다	-1519
말구	-1520
스타	-1521
아님	-1522
져서	-1523
조건	-1524
▁가고	-1525
▁늦어	-1526
▁답장	-1527
▁대기	-1528
▁마중	-1529
▁말했	-1530
▁맞네	-1531
▁불편	-1532
▁비슷	-1533
▁사실	-1534
▁손님	-1535
▁시키	-1536
▁실컷	-1537
▁야기	-1538
▁약속	-1539
▁올게	-1540
▁정도	-1541
▁카드	-1542
▁키킼	-1543
▁피자	-1544
▁필까	-1545
▁하면	-1546
▁한가	-1547
▁홀리	-1548
▁힝구	-1549
가지공	-1550
갔다가	-1551
아니야	-1552
으려구	-1553
이구나	-1554
이라고	-1555
할텐데	-1556
해볼게	-1557
▁가즈아	-1558
▁그러자	-1559
▁데려다	-1560
▁들어갔	-1561
▁말할게	-1562
▁속상해	-1563
▁애기도	-1564
▁어떻게	-1565
▁출발하	-1566
▁학교가	-1567
하고있어	-1568
▁남자친구	-1569
▁도착이욤	-1570
▁들어왔어	-1571
▁먹고싶어	-1572
▁이따보자	-1573
▁잘다녀와	-1574
10	-1575
▁긴	-1576
▁꺼	-1577
▁끊	-1578
▁놓	-1579
▁단	-1580
▁밖	-1581
▁십	-1582
▁펴	-1583
▁핫	-1584
▁흑	-1585
▁😊	-1586
가면	-1587
다리	-1588
라는	-1589
라도	-1590
맨날	-1591
보네	-1592
볶음	-1593
운데	-1594
을래	-1595
일어	-1596
튜브	-1597
할듯	-1598
▁간장	-1599
▁갠차	-1600
▁그만	-1601
▁꺄앙	-1602
▁나눈	-1603
▁나만	-1604
▁놀고	-1605
▁놓고	-1606
▁담에	-1607
▁대충	-1608
▁둘다	-1609
▁마트	-1610
▁많아	-1611
▁무야	-1612
▁부르	-1613
▁불러	-1614
▁설명	-1615
▁어쩌	-1616
▁옆에	-1617
▁예약	-1618
▁요즘	-1619
▁잘해	-1620
▁카레	-1621
▁할게	-1622
▁헤헤	-1623
▁호준	-1624
갈게요	-1625
겠지만	-1626
끝나고	-1627
해줘서	-1628
▁가려구	-1629
▁고마우	-1630
▁귀요미	-1631
▁김치찜	-1632
▁나갈때	-1633
▁덕분에	-1634
▁무조건	-1635
▁미친놈	-1636
▁밖에서	-1637
▁석계로	-1638
▁아니지	-1639
▁어머님	-1640
▁울자기	-1641
▁잘했네	-1642
▁저나해	-1643
▁저번에	-1644
▁좋겠네	-1645
▁케이크	-1646
▁그래그래	-1647
▁들렸다가	-1648
▁미안해요	-1649
▁일어나써	-1650
▁연구실에서	-1651
▁ᅥ	-1652
▁냠	-1653
▁롤	-1654
▁멋	-1655
▁쏘	-1656
▁쓸	-1657
▁채	-1658
▁체	-1659
▁폰	-1660
거리	-1661
것두	-1662
구래	-1663
긴해	-1664
는건	-1665
니께	-1666
릉이	-1667
머니	-1668
보이	-1669
볼까	-1670
시작	-1671
아따	-1672
야대	-1673
었네	-1674
엉ᄉ	-1675
염아	-1676
예정	-1677
은디	-1678
있음	-1679
줄까	-1680
찜닭	-1681
챙겨	-1682
▁가능	-1683
▁걔네	-1684
▁경배	-1685
▁괜히	-1686
▁굳굳	-1687
▁나올	-1688
▁미팅	-1689
▁보냈	-1690
▁사과	-1691
▁사서	-1692
▁서운	-1693
▁성현	-1694
▁시킬	-1695
▁신청	-1696
▁아님	-1697
▁안오	-1698
▁언니	-1699
▁엉덩	-1700
▁에구	-1701
▁입고	-1702
▁지문	-1703
▁찍어	-1704
▁필요	-1705
▁하는	-1706
▁해주	-1707
가는즁	-1708
는거임	-1709
중이야	-1710
지말고	-1711
지않게	-1712
하려고	-1713
▁그래두	-1714
▁그러게	-1715
▁그런거	-1716
▁나오면	-1717
▁두시간	-1718
▁따릉이	-1719
▁물어보	-1720
▁유튜브	-1721
▁잘갔다	-1722
▁피곤해	-1723
▁하나만	-1724
고있어서	-1725
▁가고있어	-1726
▁나가려고	-1727
▁애들이랑	-1728
▁출발해용	-1729
▁퇴근이다	-1730
▁들어왔어요	-1731
ᄏᄏᄏᄏᄏᄏᄏ	-1732
ᄃᄏ	-1733
▁길	-1734
▁깜	-1735
▁등	-1736
▁로	-1737
▁뭘	-1738
▁뽀	-1739
▁쉽	-1740
▁씨	-1741
▁착	-1742
▁탈	-1743
▁택	-1744
▁톡	-1745
가고	-1746
갈래	-1747
거지	-1748
기가	-1749
기도	-1750
끝났	-1751
내서	-1752
다는	-1753
달라	-1754
덜덜	-1755
동이	-1756
리면	-1757
만원	-1758
말고	-1759
바로	-1760
야겠	-1761
였어	-1762
오이	-1763
우고	-1764
을때	-1765
있니	-1766
정거	-1767
준다	-1768
쳐서	-1769
▁ᄀᄀ	-1770
▁ᅳᅳ	-1771
▁구냥	-1772
▁그랭	-1773
▁남겨	-1774
▁네넹	-1775
▁누나	-1776
▁담타	-1777
▁대단	-1778
▁둘이	-1779
▁만날	-1780
▁말까	-1781
▁맨날	-1782
▁뭐가	-1783
▁바바	-1784
▁바질	-1785
▁보러	-1786
▁불만	-1787
▁상관	-1788
▁새벽	-1789
▁쉰당	-1790
▁쉴거	-1791
▁싶어	-1792
▁아뉭	-1793
▁아싸	-1794
▁알게	-1795
▁앞에	-1796
▁어ᅢ	-1797
▁에고	-1798
▁열쇠	-1799
▁오빠	-1800
▁오옹	-1801
▁온다	-1802
▁울집	-1803
▁웃어	-1804
▁이름	-1805
▁자러	-1806
▁자요	-1807
▁자자	-1808
▁잘했	-1809
▁절대	-1810
▁좋다	-1811
▁하지	-1812
▁후후	-1813
간다고	-1814
긴한데	-1815
끝나서	-1816
으려고	-1817
하겠다	-1818
할거야	-1819
해줄게	-1820
▁갈아타	-1821
▁갔다와	-1822
▁고생해	-1823
▁그러고	-1824
▁다음에	-1825
▁먹을거	-1826
▁민정맴	-1827
▁배불러	-1828
▁사람들	-1829
▁쉬러가	-1830
▁어때요	-1831
▁챙겨서	-1832
▁해야지	-1833
▁했어요	-1834
겠습니다	-1835
▁ᅲᅲᅲᅲ	-1836
▁고마우이	-1837
▁먹고싶은	-1838
▁모르겠어	-1839
▁수업들어	-1840
▁쉬고있어	-1841
▁일어났네	-1842
▁ᄏᄏᄏᄏᄏᄏᄏᄏᄏᄏᄏᄏᄏᄏ	-1843
▁국	-1844
▁궁	-1845
▁낫	-1846
▁덥	-1847
▁묵	-1848
▁벗	-1849
▁셤	-1850
▁숨	-1851
▁좆	-1852
▁즐	-1853
▁첫	-1854
▁콘	-1855
▁푸	-1856
▁흥	-1857
가게	-1858
간당	-1859
간대	-1860
기네	-1861
기싫	-1862
로젝	-1863
르게	-1864
만해	-1865
버거	-1866
신대	-1867
아냐	-1868
웨이	-1869
준대	-1870
코드	-1871
하냐	-1872
ᄃᄏᄃ	-1873
▁가게	-1874
▁감자	-1875
▁근로	-1876
▁긍께	-1877
▁기달	-1878
▁나머	-1879
▁내꺼	-1880
▁냠냠	-1881
▁다먹	-1882
▁다이	-1883
▁들오	-1884
▁무리	-1885
▁무음	-1886
▁문제	-1887
▁받았	-1888
▁배터	-1889
▁보구	-1890
▁부족	-1891
▁블루	-1892
▁뽀뽀	-1893
▁살짝	-1894
▁상황	-1895
▁수빈	-1896
▁쉬고	-1897
▁아자	-1898
▁안보	-1899
▁안피	-1900
▁야야	-1901
▁어늘	-1902
▁언능	-1903
▁에어	-1904
▁예정	-1905
▁왔다	-1906
▁이써	-1907
▁주말	-1908
▁찜닭	-1909
▁창피	-1910
▁한마	-1911
▁한숨	-1912
▁힘드	-1913
들어가	-1914
로젝트	-1915
먹으러	-1916
먹을까	-1917
분뒤에	-1918
야겠네	-1919
으면서	-1920
ᅲᅲᅲᅲ	-1921
▁ᄋᄋᄋ	-1922
▁가방에	-1923
▁돈까스	-1924
▁동민이	-1925
▁들려서	-1926
▁많아서	-1927
▁매장에	-1928
▁사람이	-1929
▁수요일	-1930
▁시켰어	-1931
▁아니라	-1932
▁안고파	-1933
▁앉아서	-1934
▁어떤데	-1935
▁얼른와	-1936
▁옹동이	-1937
▁일요일	-1938
▁자기를	-1939
▁자기씨	-1940
▁하다가	-1941
거같아요	-1942
거같은데	-1943
고있었어	-1944
도착해서	-1945
야하는데	-1946
▁공부하러	-1947
▁괜찮아용	-1948
▁기다리구	-1949
▁늦지않게	-1950
▁담배피러	-1951
▁들어간다	-1952
▁들어와서	-1953
▁먹으려구	-1954
▁연락줘요	-1955
▁오이오이	-1956
▁이따보쟈	-1957
▁공부하구있	-1958
▁기다리는중	-1959
▁연락주세요	-1960
▁점장님이랑	-1961
▁피곤할텐데	-1962
▁밥먹으러가용	-1963
▁ᄇ	-1964
▁ᄐ	-1965
▁괴	-1966
▁꿈	-1967
▁논	-1968
▁샤	-1969
▁얌	-1970
▁죄	-1971
▁철	-1972
▁칭	-1973
▁컴	-1974
▁희	-1975
갈거	-1976
껀데	-1977
데이	-1978
도그	-1979
되면	-1980
드려	-1981
듣고	-1982
들은	-1983
랄까	-1984
랑해	-1985
렵다	-1986
마트	-1987
만큼	-1988
먹자	-1989
방님	-1990
번째	-1991
부네	-1992
수없	-1993
시네	-1994
아파	-1995
얘기	-1996
에유	-1997
오네	-1998
온대	-1999
으유	-2000
이당	-2001
일에	-2002
주면	-2003
주지	-2004
지요	-2005
천원	-2006
트북	-2007
하규	-2008
▁25	-2009
▁ᄋᄒ	-2010
▁가보	-2011
▁가있	-2012
▁감정	-2013
▁걸려	-2014
▁검사	-2015
▁결과	-2016
▁과일	-2017
▁궁금	-2018
▁근처	-2019
▁기여	-2020
▁꿑나	-2021
▁나갔	-2022
▁냉면	-2023
▁네네	-2024
▁눈이	-2025
▁돼지	-2026
▁됐어	-2027
▁뒤에	-2028
▁듣구	-2029
▁마시	-2030
▁마이	-2031
▁마쟈	-2032
▁말이	-2033
▁말한	-2034
▁맞다	-2035
▁먹게	-2036
▁몇개	-2037
▁모야	-2038
▁모해	-2039
▁못해	-2040
▁물론	-2041
▁뭔가	-2042
▁바람	-2043
▁바지	-2044
▁봤어	-2045
▁슬퍼	-2046
▁시원	-2047
▁심장	-2048
▁아녀	-2049
▁안들	-2050
▁어떠	-2051
▁오오	-2052
▁오카	-2053
▁온대	-2054
▁올때	-2055
▁우웅	-2056
▁이야	-2057
▁읽고	-2058
▁자주	-2059
▁장난	-2060
▁쟈철	-2061
▁정리	-2062
▁주문	-2063
▁지가	-2064
▁집갈	-2065
▁취소	-2066
▁쿠폰	-2067
▁택시	-2068
▁학겨	-2069
▁한판	-2070
▁해보	-2071
▁해줘	-2072
▁헉헉	-2073
갑니당	-2074
그래서	-2075
놓을게	-2076
들으러	-2077
러가유	-2078
수있어	-2079
시부터	-2080
을텐데	-2081
이라서	-2082
정거장	-2083
주세용	-2084
지말구	-2085
▁가려고	-2086
▁갠차낭	-2087
▁그럼요	-2088
▁기달중	-2089
▁끝내구	-2090
▁나머지	-2091
▁너한테	-2092
▁노트북	-2093
▁들어와	-2094
▁마스크	-2095
▁말해줌	-2096
▁모르겠	-2097
▁바보야	-2098
▁서방님	-2099
▁쉬어용	-2100
▁싶어서	-2101
▁씻었어	-2102
▁아라쬬	-2103
▁안나뷰	-2104
▁알겠엉	-2105
▁애기가	-2106
▁어딘데	-2107
▁엉덩이	-2108
▁오케바	-2109
▁인스타	-2110
▁좋겠어	-2111
▁집으로	-2112
▁통화중	-2113
▁하니까	-2114
▁핫도그	-2115
▁현정이	-2116
거같아서	-2117
고있는데	-2118
야되는데	-2119
하구있니	-2120
~~~~~	-2121
▁ᄏᄏᄉᄇ	-2122
▁간단하게	-2123
▁나가려구	-2124
▁나갈게요	-2125
▁너무너무	-2126
▁들어가서	-2127
▁배고프면	-2128
▁생각해보	-2129
▁있으니까	-2130
▁저나할게	-2131
▁준비해야	-2132
▁태릉에서	-2133
▁프로젝트	-2134
▁알겠슙니다	-2135
▁전화할게요	-2136
ᄏᄏᄏᄏᄏᄏᄏᄏᄏᄏᄏᄏ	-2137
//	-2138
20	-2139
▁0	-2140
▁a	-2141
▁굴	-2142
▁덮	-2143
▁레	-2144
▁복	-2145
▁솔	-2146
▁쌀	-2147
▁옛	-2148
▁왕	-2149
▁윙	-2150
▁쟤	-2151
▁족	-2152
▁줘	-2153
▁직	-2154
▁터	-2155
▁투	-2156
▁팔	-2157
▁패	-2158
▁퓨	-2159
▁플	-2160
▁훔	-2161
갈아	-2162
겠군	-2163
계란	-2164
나가	-2165
나왔	-2166
다규	-2167
던가	-2168
된대	-2169
랴구	-2170
마워	-2171
마집	-2172
몰라	-2173
미나	-2174
베리	-2175
보ᅥ	-2176
분이	-2177
빨리	-2178
아녀	-2179
우면	-2180
이썽	-2181
이여	-2182
장고	-2183
준서	-2184
진짜	-2185
타구	-2186
탔어	-2187
했나	-2188
▁ᄏᄐ	-2189
▁가용	-2190
▁감사	-2191
▁갔어	-2192
▁걸어	-2193
▁구라	-2194
▁나듀	-2195
▁나빠	-2196
▁나쁜	-2197
▁너랑	-2198
▁니가	-2199
▁담피	-2200
▁돼요	-2201
▁드가	-2202
▁들었	-2203
▁따듯	-2204
▁따뜻	-2205
▁따라	-2206
▁떨어	-2207
▁마미	-2208
▁말도	-2209
▁머글	-2210
▁모행	-2211
▁뭐지	-2212
▁미치	-2213
▁민수	-2214
▁반에	-2215
▁버리	-2216
▁빼고	-2217
▁사가	-2218
▁서울	-2219
▁소중	-2220
▁아오	-2221
▁아제	-2222
▁양성	-2223
▁어려	-2224
▁없네	-2225
▁없는	-2226
▁에휴	-2227
▁여유	-2228
▁옛날	-2229
▁오켕	-2230
▁왜용	-2231
▁운동	-2232
▁융야	-2233
▁응원	-2234
▁있고	-2235
▁잘됐	-2236
▁잠이	-2237
▁장원	-2238
▁저거	-2239
▁제발	-2240
▁조져	-2241
▁중간	-2242
▁짱나	-2243
▁채히	-2244
▁탔어	-2245
▁포도	-2246
계란밥	-2247
기로했	-2248
시쯤에	-2249
왔는데	-2250
을거야	-2251
자마자	-2252
하는고	-2253
하라고	-2254
▁ᄋᄌᄅ	-2255
▁가지고	-2256
▁같이가	-2257
▁고마어	-2258
▁그리고	-2259
▁기분좋	-2260
▁남았다	-2261
▁들으러	-2262
▁만나러	-2263
▁먹구싶	-2264
▁먹어야	-2265
▁못했어	-2266
▁물어봐	-2267
▁바빠서	-2268
▁받아서	-2269
▁신경쓰	-2270
▁싫으면	-2271
▁아라또	-2272
▁안늦게	-2273
▁안먹어	-2274
▁알았어	-2275
▁언제쯤	-2276
▁에어컨	-2277
▁오래걸	-2278
▁오카이	-2279
▁왜저래	-2280
▁자고있	-2281
▁자래떠	-2282
▁저나함	-2283
▁진짜로	-2284
▁토요일	-2285
▁하나도	-2286
▁하는데	-2287
▁할머니	-2288
▁후다닥	-2289
▁ᄏᄃᄏᄃ	-2290
▁가려구요	-2291
▁고마워용	-2292
▁공부하고	-2293
▁괜찮아유	-2294
▁늦게까지	-2295
▁도착해써	-2296
▁드갑니다	-2297
▁따뜻하게	-2298
▁먹어야지	-2299
▁먹을거야	-2300
▁몇시까지	-2301
▁사랑해요	-2302
▁안남았다	-2303
▁잘했어요	-2304
▁챙겨먹구	-2305
▁형들이랑	-2306
기로했어요	-2307
▁간장계란밥	-2308
▁맛있게먹구	-2309
▁뭐하구있어	-2310
▁어디쯤이야	-2311
▁연락해줘요	-2312
▁잘다녀와요	-2313
▁출발합니다	-2314
00	-2315
ᄒᄒ	-2316
▁c	-2317
▁ᄈ	-2318
▁ᄑ	-2319
▁ᅩ	-2320
▁관	-2321
▁깔	-2322
▁꽤	-2323
▁끌	-2324
▁농	-2325
▁뮤	-2326
▁봄	-2327
▁빈	-2328
▁빌	-2329
▁앗	-2330
▁옮	-2331
▁윤	-2332
▁은	-2333
▁잃	-2334
▁종	-2335
▁칼	-2336
▁평	-2337
가네	-2338
겨서	-2339
기다	-2340
냄새	-2341
놀아	-2342
는대	-2343
는줄	-2344
던거	-2345
두부	-2346
땡이	-2347
레스	-2348
려공	-2349
려궁	-2350
려면	-2351
른가	-2352
리네	-2353
만나	-2354
며칠	-2355
바빠	-2356
보러	-2357
보면	-2358
봐서	-2359
분남	-2360
쁘네	-2361
시러	-2362
신청	-2363
아리	-2364
안고	-2365
안함	-2366
야ᅲ	-2367
엄마	-2368
었다	-2369
올겡	-2370
와유	-2371
을듯	-2372
이니	-2373
이얌	-2374
인거	-2375
입고	-2376
있는	-2377
죠잉	-2378
주는	-2379
지네	-2380
짓말	-2381
치즈	-2382
켓몬	-2383
편제	-2384
화점	-2385
▁ᅮᅮ	-2386
▁가기	-2387
▁가슴	-2388
▁가지	-2389
▁간대	-2390
▁갈겡	-2391
▁같은	-2392
▁결국	-2393
▁고냥	-2394
▁구럼	-2395
▁그레	-2396
▁기대	-2397
▁긴장	-2398
▁까먹	-2399
▁끝남	-2400
▁나쁘	-2401
▁나아	-2402
▁나온	-2403
▁나옴	-2404
▁넘어	-2405
▁노농	-2406
▁다니	-2407
▁다와	-2408
▁달려	-2409
▁도망	-2410
▁두둥	-2411
▁두찌	-2412
▁들고	-2413
▁따로	-2414
▁라고	-2415
▁마려	-2416
▁말고	-2417
▁말투	-2418
▁뭐라	-2419
▁미워	-2420
▁바쁜	-2421
▁배는	-2422
▁보문	-2423
▁비싼	-2424
▁비오	-2425
▁새로	-2426
▁생리	-2427
▁서브	-2428
▁소리	-2429
▁스트	-2430
▁안될	-2431
▁어떡	-2432
▁없다	-2433
▁없지	-2434
▁영화	-2435
▁오는	-2436
▁오홍	-2437
▁위에	-2438
▁의영	-2439
▁이이	-2440
▁읽씹	-2441
▁있나	-2442
▁자귀	-2443
▁장사	-2444
▁저두	-2445
▁전에	-2446
▁족발	-2447
▁졸라	-2448
▁쪼꼼	-2449
▁처음	-2450
▁추가	-2451
▁추워	-2452
▁플레	-2453
▁할인	-2454
▁함냐	-2455
▁확실	-2456
▁휴가	-2457
▁흐규	-2458
가지구	-2459
갈게유	-2460
겠구나	-2461
고시퍼	-2462
끝나면	-2463
는다고	-2464
볼게요	-2465
습니당	-2466
았는데	-2467
앞에서	-2468
올게요	-2469
왔어용	-2470
우니까	-2471
이라도	-2472
줬으면	-2473
하겠네	-2474
하는중	-2475
하지않	-2476
할까봐	-2477
할수있	-2478
zzzz	-2479
▁거기로	-2480
▁거기서	-2481
▁거짓말	-2482
▁귀여운	-2483
▁금요일	-2484
▁기억이	-2485
▁냉장고	-2486
▁다른거	-2487
▁당연히	-2488
▁드간다	-2489
▁때문에	-2490
▁맞춰서	-2491
▁먹을까	-2492
▁목소리	-2493
▁뭐라고	-2494
▁뭐먹어	-2495
▁백화점	-2496
▁보자구	-2497
▁생각나	-2498
▁생각이	-2499
▁서편제	-2500
▁세미나	-2501
▁순두부	-2502
▁쉅들어	-2503
▁시켜떠	-2504
▁심심해	-2505
▁아니다	-2506
▁아픈데	-2507
▁안피곤	-2508
▁알바가	-2509
▁알아서	-2510
▁약수역	-2511
▁얘기해	-2512
▁얼마나	-2513
▁없었어	-2514
▁연락해	-2515
▁일하는	-2516
▁자기만	-2517
▁자기집	-2518
▁지원이	-2519
▁진짜루	-2520
▁집들어	-2521
▁챙겼어	-2522
▁카페가	-2523
▁탔어요	-2524
▁퇴근이	-2525
▁편한대	-2526
▁포켓몬	-2527
▁하고싶	-2528
▁하는거	-2529
▁하루도	-2530
▁해볼게	-2531
기로했어	-2532
을거같아	-2533
해주세요	-2534
▁가구있어	-2535
▁걱정하지	-2536
▁고생하네	-2537
▁고생했다	-2538
▁금요일에	-2539
▁나왔는데	-2540
▁다녀와유	-2541
▁다행이군	-2542
▁돌아다니	-2543
▁들어갔어	-2544
▁맛있겠네	-2545
▁맛있었어	-2546
▁스트레스	-2547
▁여기까지	-2548
▁여자친구	-2549
▁연구실에	-2550
▁준비해서	-2551
▁확인해보	-2552
▁고생했어요	-2553
▁공부하다가	-2554
▁담배피러가	-2555
▁들어갑니다	-2556
▁뭐하고있어	-2557
▁밥먹으러가	-2558
▁부점장님이	-2559
▁편의점에서	-2560
▁쉬는시간이야	-2561
▁S	-2562
▁Z	-2563
▁ᅵ	-2564
▁❤	-2565
▁곱	-2566
▁꼬	-2567
▁끄	-2568
▁눕	-2569
▁덜	-2570
▁델	-2571
▁똥	-2572
▁변	-2573
▁빙	-2574
▁뿌	-2575
▁습	-2576
▁움	-2577
▁젤	-2578
▁쥐	-2579
▁쫌	-2580
▁친	-2581
▁칠	-2582
▁훨	-2583
가능	-2584
가져	-2585
거나	-2586
광장	-2587
규실	-2588
그랴	-2589
기여	-2590
나도	-2591
나오	-2592
나옴	-2593
나와	-2594
내고	-2595
너츠	-2596
두대	-2597
들도	-2598
듯이	-2599
때는	-2600
렸다	-2601
리가	-2602
리는	-2603
마넌	-2604
마다	-2605
머거	-2606
먼저	-2607
무리	-2608
물러	-2609
뭐야	-2610
바지	-2611
받아	-2612
버림	-2613
번출	-2614
사님	-2615
세유	-2616
수빈	-2617
스러	-2618
시켰	-2619
아라	-2620
안나	-2621
안돼	-2622
야끼	-2623
어ᅡ	-2624
영상	-2625
오ᅥ	-2626
오치	-2627
와써	-2628
웃겨	-2629
웠어	-2630
으시	-2631
으요	-2632
이구	-2633
이리	-2634
이버	-2635
있지	-2636
잔아	-2637
쟁이	-2638
쟈기	-2639
주일	-2640
줄알	-2641
챙기	-2642
치면	-2643
퓨터	-2644
하넹	-2645
하셈	-2646
학교	-2647
해쓔	-2648
했음	-2649
호선	-2650
▁개맛	-2651
▁거생	-2652
▁고래	-2653
▁고럼	-2654
▁고파	-2655
▁과자	-2656
▁꿀잠	-2657
▁나누	-2658
▁나야	-2659
▁난세	-2660
▁놀구	-2661
▁놀러	-2662
▁대신	-2663
▁동기	-2664
▁드라	-2665
▁똑같	-2666
▁라이	-2667
▁만났	-2668
▁만두	-2669
▁만들	-2670
▁말씀	-2671
▁맞제	-2672
▁머먹	-2673
▁먹은	-2674
▁며칠	-2675
▁몰랐	-2676
▁몸은	-2677
▁몸이	-2678
▁못들	-2679
▁문자	-2680
▁바빴	-2681
▁밥도	-2682
▁보낼	-2683
▁불렀	-2684
▁붙어	-2685
▁비빔	-2686
▁산책	-2687
▁쉴게	-2688
▁시장	-2689
▁식당	-2690
▁신발	-2691
▁실수	-2692
▁쏘리	-2693
▁씻었	-2694
▁아항	-2695
▁안와	-2696
▁알지	-2697
▁애매	-2698
▁어댜	-2699
▁어른	-2700
▁없음	-2701
▁예쁜	-2702
▁오키	-2703
▁와도	-2704
▁왜이	-2705
▁용서	-2706
▁웃겨	-2707
▁이건	-2708
▁이러	-2709
▁이쁜	-2710
▁일은	-2711
▁잃어	-2712
▁입력	-2713
▁있음	-2714
▁잉잉	-2715
▁자긴	-2716
▁자는	-2717
▁재미	-2718
▁적당	-2719
▁전혀	-2720
▁점장	-2721
▁조치	-2722
▁조하	-2723
▁졸려	-2724
▁죄송	-2725
▁주고	-2726
▁주소	-2727
▁죽어	-2728
▁지원	-2729
▁지쨔	-2730
▁챙길	-2731
▁천사	-2732
▁천재	-2733
▁청소	-2734
▁초코	-2735
▁축하	-2736
▁큰일	-2737
▁타코	-2738
▁하게	-2739
▁하자	-2740
▁한대	-2741
▁할거	-2742
▁해요	-2743
▁행복	-2744
▁호야	-2745
▁혼나	-2746
▁화내	-2747
▁훨씬	-2748
▁흐음	-2749
갔는데	-2750
끝났어	-2751
더라고	-2752
된다고	-2753
려구용	-2754
버렸어	-2755
시간에	-2756
주는데	-2757
쪽으로	-2758
하자나	-2759
한거야	-2760
▁ᄂᄂᄂ	-2761
▁갔다오	-2762
▁걱정마	-2763
▁공부해	-2764
▁그걸로	-2765
▁그니까	-2766
▁그대로	-2767
▁그른가	-2768
▁그정도	-2769
▁그치만	-2770
▁끝났다	-2771
▁누워서	-2772
▁눈치보	-2773
▁다먹어	-2774
▁다먹었	-2775
▁담주에	-2776
▁도너츠	-2777
▁도착띠	-2778
▁동아리	-2779
▁동영상	-2780
▁마무리	-2781
▁마미집	-2782
▁마음이	-2783
▁만나면	-2784
▁만들어	-2785
▁먹어유	-2786
▁뭐하니	-2787
▁미쳤다	-2788
▁버리고	-2789
▁쉬니까	-2790
▁시간을	-2791
▁쌀국수	-2792
▁아니구	-2793
▁아라따	-2794
▁안들어	-2795
▁안오면	-2796
▁앞으로	-2797
▁애기양	-2798
▁언제와	-2799
▁연규실	-2800
▁예쁘게	-2801
▁오디양	-2802
▁왔어용	-2803
▁일어남	-2804
▁일욜에	-2805
▁일주일	-2806
▁있는거	-2807
▁있다고	-2808
▁잘잤어	-2809
▁잘하고	-2810
▁조심해	-2811
▁조오치	-2812
▁좋아서	-2813
▁주물러	-2814
▁찾아봐	-2815
▁충전기	-2816
▁카톡이	-2817
▁컴퓨터	-2818
▁퇴근하	-2819
▁한마디	-2820
▁호다닥	-2821
▁후덜덜	-2822
고싶으면	-2823
고있으면	-2824
▁가야겠다	-2825
▁그렇구나	-2826
▁기다릴게	-2827
▁끝났는데	-2828
▁나갈준비	-2829
▁담배피구	-2830
▁당연하지	-2831
▁도착해요	-2832
▁맛있게먹	-2833
▁먹으면서	-2834
▁생각하고	-2835
▁서브웨이	-2836
▁속상하게	-2837
▁안피곤해	-2838
▁앉아있어	-2839
▁알았어요	-2840
▁얘기하고	-2841
▁언제든지	-2842
▁얼마든지	-2843
▁엄마한테	-2844
▁울점장님	-2845
▁자기자기	-2846
▁장원이랑	-2847
▁출발할때	-2848
▁타코야끼	-2849
▁태릉입구	-2850
▁학교도착	-2851
고있을게요	-2852
▁맛있게먹어	-2853
▁씻고올게요	-2854
▁일어나야지	-2855
▁밥먹으러가유	-2856
▁부점장님한테	-2857
▁화이팅입니다	-2858
▁기다리고있을게	-2859
40	-2860
ht	-2861
me	-2862
tp	-2863
ve	-2864
ᄃᄃ	-2865
ᅩᄂ	-2866
▁:	-2867
▁ᅡ	-2868
▁갖	-2869
▁걷	-2870
▁곶	-2871
▁꾸	-2872
▁놈	-2873
▁든	-2874
▁뚝	-2875
▁뛰	-2876
▁몬	-2877
▁밀	-2878
▁봤	-2879
▁뼈	-2880
▁숙	-2881
▁승	-2882
▁씁	-2883
▁얻	-2884
▁엎	-2885
▁옶	-2886
▁욕	-2887
▁찌	-2888
▁첨	-2889
▁캐	-2890
▁컨	-2891
▁햄	-2892
▁햇	-2893
▁😂	-2894
▁😆	-2895
가라	-2896
가야	-2897
강ᄑ	-2898
거라	-2899
건가	-2900
고파	-2901
구마	-2902
기한	-2903
긴거	-2904
까진	-2905
난거	-2906
다음	-2907
단말	-2908
듯요	-2909
디어	-2910
라힘	-2911
람회	-2912
래서	-2913
랴고	-2914
렌즈	-2915
려나	-2916
로나	-2917
린거	-2918
린대	-2919
머리	-2920
모님	-2921
보니	-2922
부러	-2923
분뒤	-2924
뿌네	-2925
수가	-2926
슈슈	-2927
시나	-2928
시만	-2929
아아	-2930
아자	-2931
았음	-2932
앞에	-2933
올라	-2934
완료	-2935
왔다	-2936
요뜨	-2937
운거	-2938
월곡	-2939
유ᅥ	-2940
을걸	-2941
의영	-2942
이밍	-2943
인지	-2944
일까	-2945
있네	-2946
자구	-2947
장원	-2948
정민	-2949
종일	-2950
주께	-2951
지컬	-2952
치고	-2953
카오	-2954
카츄	-2955
하겠	-2956
하긴	-2957
하노	-2958
하로	-2959
하실	-2960
해줄	-2961
했대	-2962
했던	-2963
://	-2964
▁ht	-2965
▁가까	-2966
▁가도	-2967
▁갈래	-2968
▁감기	-2969
▁개뛰	-2970
▁건강	-2971
▁골라	-2972
▁공릉	-2973
▁곶감	-2974
▁관심	-2975
▁괴롭	-2976
▁교촌	-2977
▁구경	-2978
▁그나	-2979
▁나동	-2980
▁냄새	-2981
▁놀다	-2982
▁느끼	-2983
▁느낌	-2984
▁늦잠	-2985
▁님아	-2986
▁다씻	-2987
▁달라	-2988
▁당장	-2989
▁도넛	-2990
▁도전	-2991
▁되지	-2992
▁된다	-2993
▁두고	-2994
▁들릴	-2995
▁디게	-2996
▁땡큐	-2997
▁마마	-2998
▁마싯	-2999
▁만약	-3000
▁말을	-3001
▁맘이	-3002
▁머핀	-3003
▁못봤	-3004
▁무섭	-3005
▁뭐임	-3006
▁뭐좀	-3007
▁믿어	-3008
▁받을	-3009
▁번호	-3010
▁베라	-3011
▁별일	-3012
▁보쟈	-3013
▁봐줘	-3014
▁비가	-3015
▁상상	-3016
▁생일	-3017
▁선물	-3018
▁수도	-3019
▁쉬워	-3020
▁시골	-3021
▁시킴	-3022
▁씻을	-3023
▁아는	-3024
▁아닁	-3025
▁안대	-3026
▁안봐	-3027
▁안사	-3028
▁안써	-3029
▁안암	-3030
▁않게	-3031
▁알밥	-3032
▁야무	-3033
▁야미	-3034
▁어니	-3035
▁어딜	-3036
▁어잉	-3037
▁없으	-3038
▁없이	-3039
▁오때	-3040
▁왜유	-3041
▁우째	-3042
▁원주	-3043
▁월급	-3044
▁월화	-3045
▁유통	-3046
▁자구	-3047
▁잘먹	-3048
▁저런	-3049
▁점심	-3050
▁제일	-3051
▁조앙	-3052
▁조지	-3053
▁존맛	-3054
▁지나	-3055
▁질문	-3056
▁참아	-3057
▁체리	-3058
▁축제	-3059
▁타고	-3060
▁타쓔	-3061
▁포기	-3062
▁하하	-3063
▁한거	-3064
▁한국	-3065
▁한다	-3066
▁해야	-3067
▁혼내	-3068
▁훔쳐	-3069
▁흑흑	-3070
간다구	-3071
갈거야	-3072
갈게용	-3073
것같음	-3074
고싶네	-3075
남아따	-3076
더라구	-3077
드려서	-3078
때문에	-3079
받아서	-3080
보이네	-3081
분이면	-3082
시간이	-3083
시전에	-3084
써ᅲᅲ	-3085
야돼서	-3086
었어요	-3087
을게요	-3088
이여서	-3089
적으로	-3090
준다고	-3091
지ᅲᅲ	-3092
지않아	-3093
테니까	-3094
▁100	-3095
▁ᄒᄃᄃ	-3096
▁가고있	-3097
▁가라고	-3098
▁가볼게	-3099
▁가지마	-3100
▁간다고	-3101
▁갈거야	-3102
▁갈게용	-3103
▁걸려요	-3104
▁경배랑	-3105
▁고맙다	-3106
▁구래용	-3107
▁귀염아	-3108
▁귀엽네	-3109
▁그러믄	-3110
▁기분이	-3111
▁기욤아	-3112
▁껴안고	-3113
▁나간다	-3114
▁나보고	-3115
▁나와쓔	-3116
▁네이버	-3117
▁놓쳐서	-3118
▁누워이	-3119
▁늦어서	-3120
▁다이아	-3121
▁닭볶음	-3122
▁드디어	-3123
▁들어갈	-3124
▁똑바로	-3125
▁마감중	-3126
▁만나기	-3127
▁만났어	-3128
▁먹어도	-3129
▁먹어용	-3130
▁목요일	-3131
▁무서운	-3132
▁뭐먹니	-3133
▁뭐먹을	-3134
▁뮤지컬	-3135
▁바바잉	-3136
▁받았어	-3137
▁밥먹을	-3138
▁배달의	-3139
▁보내고	-3140
▁부모님	-3141
▁비요뜨	-3142
▁상월곡	-3143
▁새벽에	-3144
▁성현이	-3145
▁수빈이	-3146
▁쉬는날	-3147
▁싶은데	-3148
▁아닌데	-3149
▁아직두	-3150
▁안먹고	-3151
▁안하고	-3152
▁알게쏘	-3153
▁알겠다	-3154
▁양의영	-3155
▁어디가	-3156
▁어이없	-3157
▁언능와	-3158
▁없는데	-3159
▁에바야	-3160
▁에바지	-3161
▁열차가	-3162
▁오라고	-3163
▁온다고	-3164
▁옷갈아	-3165
▁왜그러	-3166
▁우리도	-3167
▁우리집	-3168
▁울엄마	-3169
▁의영이	-3170
▁읽고씹	-3171
▁있어용	-3172
▁자기여	-3173
▁자래써	-3174
▁자려고	-3175
▁잘했다	-3176
▁잠시만	-3177
▁저나할	-3178
▁적당히	-3179
▁조아요	-3180
▁좋아요	-3181
▁좋았어	-3182
▁집가요	-3183
▁집간다	-3184
▁집갈때	-3185
▁챙겨먹	-3186
▁카카오	-3187
▁콘치즈	-3188
▁피카츄	-3189
▁하는중	-3190
▁할수있	-3191
▁호준이	-3192
▁힘들다	-3193
▁힘들면	-3194
▁힘들어	-3195
거같으면	-3196
것같아요	-3197
고싶은데	-3198
다고해서	-3199
시반까지	-3200
해가지고	-3201
▁http	-3202
▁ᄋᄋᄋᄋ	-3203
▁걱정말구	-3204
▁공부시작	-3205
▁괜찮으면	-3206
▁구래구래	-3207
▁끝났어용	-3208
▁남은시간	-3209
▁노력할게	-3210
▁누워있어	-3211
▁도착해썽	-3212
▁도착했다	-3213
▁동민이랑	-3214
▁말해줘서	-3215
▁먹었어요	-3216
▁민정이가	-3217
▁보구시퍼	-3218
▁블루베리	-3219
▁사람들이	-3220
▁생각해놔	-3221
▁시작해요	-3222
▁아자아자	-3223
▁애들한테	-3224
▁어머니랑	-3225
▁어쩔수없	-3226
▁언제끝나	-3227
▁우리애기	-3228
▁우리자기	-3229
▁유통기한	-3230
▁일끝나고	-3231
▁있을거야	-3232
▁잠들었어	-3233
▁장원이가	-3234
▁정말이야	-3235
▁지하철이	-3236
▁찾아볼게	-3237
▁출발한다	-3238
▁카페에서	-3239
▁하구있어	-3240
▁하루종일	-3241
▁현지한테	-3242
▁힘내라힘	-3243
려고했는데	-3244
▁가고있어요	-3245
▁다녀올게유	-3246
▁뭐하구이써	-3247
▁수업끝나서	-3248
▁다행이다ᅲᅲ	-3249
▁도착했어요오	-3250
▁확인해보세요	-3251
11	-3252
50	-3253
li	-3254
ne	-3255
sp	-3256
st	-3257
ᄋᄌ	-3258
ᅭᅥ	-3259
▁#	-3260
▁'	-3261
▁ᄉ	-3262
▁각	-3263
▁겨	-3264
▁긔	-3265
▁끼	-3266
▁닦	-3267
▁닫	-3268
▁됨	-3269
▁듀	-3270
▁리	-3271
▁명	-3272
▁밑	-3273
▁밤	-3274
▁샵	-3275
▁섹	-3276
▁앱	-3277
▁앵	-3278
▁얀	-3279
▁옙	-3280
▁잼	-3281
▁쨘	-3282
▁쳐	-3283
▁클	-3284
▁큼	-3285
▁탄	-3286
▁튀	-3287
▁표	-3288
▁합	-3289
▁헥	-3290
▁헬	-3291
▁황	-3292
▁훗	-3293
가기	-3294
강ᄉ	-3295
강정	-3296
거려	-3297
검색	-3298
것만	-3299
고기	-3300
구가	-3301
구로	-3302
국인	-3303
꺼지	-3304
끄러	-3305
낼게	-3306
노래	-3307
는군	-3308
도라	-3309
라규	-3310
래요	-3311
려도	-3312
로는	-3313
많아	-3314
많이	-3315
말도	-3316
말이	-3317
맞아	-3318
먹으	-3319
무룩	-3320
민족	-3321
받어	-3322
번지	-3323
보게	-3324
봐요	-3325
부지	-3326
빠뉴	-3327
살이	-3328
생겼	-3329
시는	-3330
시킴	-3331
신가	-3332
쓰고	-3333
아앙	-3334
어도	-3335
어폰	-3336
언제	-3337
업박	-3338
없는	-3339
오요	-3340
유ᅩ	-3341
은지	-3342
이런	-3343
인다	-3344
자꾸	-3345
자너	-3346
자서	-3347
자자	-3348
적인	-3349
전히	-3350
졌다	-3351
주에	-3352
줬어	-3353
지용	-3354
지원	-3355
직바	-3356
직이	-3357
질래	-3358
청소	-3359
치킨	-3360
쿰척	-3361
피자	-3362
하군	-3363
하께	-3364
하라	-3365
학원	-3366
한가	-3367
합니	-3368
해ᅲ	-3369
해줌	-3370
혼자	-3371
000	-3372
~^^	-3373
▁23	-3374
▁35	-3375
▁ᄀᄃ	-3376
▁ᄌᄂ	-3377
▁개꿀	-3378
▁갠찬	-3379
▁계란	-3380
▁국밥	-3381
▁그롬	-3382
▁그저	-3383
▁그춍	-3384
▁나감	-3385
▁나이	-3386
▁날이	-3387
▁남음	-3388
▁냉동	-3389
▁너네	-3390
▁놀랐	-3391
▁눈에	-3392
▁늦었	-3393
▁다섯	-3394
▁단호	-3395
▁돌려	-3396
▁돌리	-3397
▁동대	-3398
▁될까	-3399
▁든든	-3400
▁땀이	-3401
▁마침	-3402
▁만지	-3403
▁말구	-3404
▁맘대	-3405
▁머그	-3406
▁먹규	-3407
▁먹기	-3408
▁멍청	-3409
▁면접	-3410
▁모습	-3411
▁못가	-3412
▁못봐	-3413
▁뭔데	-3414
▁바라	-3415
▁받고	-3416
▁배우	-3417
▁백퍼	-3418
▁별루	-3419
▁봐도	-3420
▁분리	-3421
▁빠빠	-3422
▁빵도	-3423
▁사고	-3424
▁사라	-3425
▁샀어	-3426
▁상처	-3427
▁석관	-3428
▁선풍	-3429
▁세상	-3430
▁소개	-3431
▁소주	-3432
▁속초	-3433
▁수다	-3434
▁숙소	-3435
▁쉴때	-3436
▁스발	-3437
▁스시	-3438
▁슬프	-3439
▁싫다	-3440
▁십분	-3441
▁쓰고	-3442
▁씹덕	-3443
▁아고	-3444
▁아나	-3445
▁아놔	-3446
▁아닐	-3447
▁아쉬	-3448
▁안울	-3449
▁안좋	-3450
▁안함	-3451
▁않아	-3452
▁어딨	-3453
▁어렵	-3454
▁어색	-3455
▁어쭈	-3456
▁없고	-3457
▁예상	-3458
▁오전	-3459
▁오해	-3460
▁왜웃	-3461
▁외대	-3462
▁요거	-3463
▁요기	-3464
▁울어	-3465
▁음식	-3466
▁응ᄋ	-3467
▁이뻐	-3468
▁이유	-3469
▁이지	-3470
▁이틀	-3471
▁일이	-3472
▁임마	-3473
▁있다	-3474
▁있으	-3475
▁잠도	-3476
▁잠은	-3477
▁전해	-3478
▁조퇴	-3479
▁좀더	-3480
▁좋네	-3481
▁주점	-3482
▁지내	-3483
▁지도	-3484
▁진료	-3485
▁집중	-3486
▁챙기	-3487
▁추석	-3488
▁추울	-3489
▁칭찬	-3490
▁쿠키	-3491
▁타러	-3492
▁타서	-3493
▁틀어	-3494
▁파파	-3495
▁풀고	-3496
▁프사	-3497
▁하기	-3498
▁하늘	-3499
▁학생	-3500
▁한잔	-3501
▁할까	-3502
▁할맥	-3503
▁해줄	-3504
▁헐랭	-3505
▁휴식	-3506
▁휴일	-3507
가고싶	-3508
가는거	-3509
가보네	-3510
가야지	-3511
구나야	-3512
그러면	-3513
꺼에요	-3514
나보다	-3515
나부네	-3516
나와서	-3517
분쯤에	-3518
사람이	-3519
스크림	-3520
아니면	-3521
었으면	-3522
이어유	-3523
이자나	-3524
입니당	-3525
입었어	-3526
있을게	-3527
잘했어	-3528
하구나	-3529
하는게	-3530
하다고	-3531
하지만	-3532
한다구	-3533
해야디	-3534
▁ᄀᄎ아	-3535
▁가야돼	-3536
▁가야되	-3537
▁가져가	-3538
▁가져와	-3539
▁갈게유	-3540
▁갈수있	-3541
▁같은데	-3542
▁거마워	-3543
▁고민중	-3544
▁고생했	-3545
▁귀엽게	-3546
▁귀차나	-3547
▁그나마	-3548
▁그전에	-3549
▁기여미	-3550
▁끝났넹	-3551
▁끝났슈	-3552
▁끝났엉	-3553
▁남았네	-3554
▁내려서	-3555
▁내려요	-3556
▁내일은	-3557
▁다녀올	-3558
▁다하구	-3559
▁도착할	-3560
▁드라마	-3561
▁들어오	-3562
▁마렵다	-3563
▁말했어	-3564
▁맞자나	-3565
▁매직바	-3566
▁먹기로	-3567
▁먹어보	-3568
▁먹어서	-3569
▁먹어써	-3570
▁먹자고	-3571
▁모르게	-3572
▁물어본	-3573
▁물어볼	-3574
▁뭐하는	-3575
▁뭐해유	-3576
▁미친거	-3577
▁박준서	-3578
▁받았다	-3579
▁밥먹어	-3580
▁배터리	-3581
▁보고시	-3582
▁보내줄	-3583
▁비빔밥	-3584
▁사갈까	-3585
▁샵검색	-3586
▁서장원	-3587
▁수업은	-3588
▁쉬는데	-3589
▁시간도	-3590
▁시발련	-3591
▁시킬까	-3592
▁싶으면	-3593
▁아라뜌	-3594
▁아마따	-3595
▁아무도	-3596
▁아파서	-3597
▁아프게	-3598
▁안간다	-3599
▁안먹구	-3600
▁안보여	-3601
▁안했어	-3602
▁않았어	-3603
▁알겠슈	-3604
▁알려주	-3605
▁암것도	-3606
▁앱에서	-3607
▁얘기중	-3608
▁어디니	-3609
▁어디로	-3610
▁어떤거	-3611
▁어쩌다	-3612
▁언니가	-3613
▁언제오	-3614
▁엄마랑	-3615
▁없으면	-3616
▁옴마집	-3617
▁이마트	-3618
▁이번엔	-3619
▁이새끼	-3620
▁이해가	-3621
▁일부러	-3622
▁있자나	-3623
▁있잖아	-3624
▁잘하는	-3625
▁잤는데	-3626
▁저렇게	-3627
▁전화줘	-3628
▁졸다가	-3629
▁좋아하	-3630
▁준비다	-3631
▁준서야	-3632
▁중간에	-3633
▁추워서	-3634
▁충분히	-3635
▁취업박	-3636
▁친구들	-3637
▁코로나	-3638
▁타이밍	-3639
▁티데이	-3640
▁하자고	-3641
▁학교에	-3642
▁한번만	-3643
▁할게요	-3644
▁햄버거	-3645
▁헤어질	-3646
▁현정맴	-3647
▁화났어	-3648
분정도에	-3649
인가보네	-3650
입니다요	-3651
해야게따	-3652
▁ᄂᄂᄂᄂ	-3653
▁ᄏᄏ기여	-3654
▁가고싶어	-3655
▁갔다와서	-3656
▁개웃기네	-3657
▁갠차나용	-3658
▁고생해요	-3659
▁그래야지	-3660
▁그러믄요	-3661
▁그럴게요	-3662
▁나갑니다	-3663
▁나한테만	-3664
▁늦을까봐	-3665
▁닭볶음탕	-3666
▁도착시간	-3667
▁도착예정	-3668
▁든든하게	-3669
▁만나러가	-3670
▁만나자고	-3671
▁먹고싶다	-3672
▁먹었는데	-3673
▁먹으니까	-3674
▁뭐먹을래	-3675
▁민정이랑	-3676
▁밥먹으로	-3677
▁배고파서	-3678
▁생각했어	-3679
▁수업끝났	-3680
▁수요일에	-3681
▁쉅끝나구	-3682
▁스시쟁이	-3683
▁씻으려구	-3684
▁아니니까	-3685
▁아니아니	-3686
▁알람소리	-3687
▁얘기했어	-3688
▁어무니는	-3689
▁어제처럼	-3690
▁연구실가	-3691
▁오케바뤼	-3692
▁왜이렇게	-3693
▁웃으면서	-3694
▁이런이런	-3695
▁있을게요	-3696
▁자기ᅲᅲ	-3697
▁자기야ᅲ	-3698
▁정지현집	-3699
▁좀있으면	-3700
▁좋아하는	-3701
▁지하철타	-3702
▁카톡으로	-3703
▁퇴근해서	-3704
하고있을게	-3705
▁걱정하지마	-3706
▁공부하고있	-3707
▁나가려구요	-3708
▁누워있다가	-3709
▁데리러갈게	-3710
▁도서관에서	-3711
▁들어가요잉	-3712
▁들어갑니당	-3713
▁매직바코드	-3714
▁먹고싶으면	-3715
▁배달의민족	-3716
▁순두부찌개	-3717
▁쉬고있을게	-3718
▁아이스크림	-3719
▁장원이한테	-3720
▁전화해도돼	-3721
▁집도착했어	-3722
▁취업박람회	-3723
▁친구들이랑	-3724
▁쉬는시간이에용	-3725
31	-3726
@@	-3727
ct	-3728
le	-3729
ᅭᅵ	-3730
ᅮᅲ	-3731
ᅳᅲ	-3732
▁g	-3733
▁r	-3734
▁곳	-3735
▁굿	-3736
▁귣	-3737
▁냐	-3738
▁뉴	-3739
▁는	-3740
▁닷	-3741
▁뜯	-3742
▁래	-3743
▁빤	-3744
▁쉼	-3745
▁쌉	-3746
▁썹	-3747
▁얄	-3748
▁억	-3749
▁잇	-3750
▁잊	-3751
▁접	-3752
▁줌	-3753
▁증	-3754
▁쩜	-3755
▁쪽	-3756
▁쭉	-3757
▁춥	-3758
▁침	-3759
▁켜	-3760
▁큐	-3761
▁팀	-3762
▁팬	-3763
▁페	-3764
▁펜	-3765
▁폈	-3766
▁향	-3767
▁효	-3768
▁힐	-3769
▁👍	-3770
갈겡	-3771
것저	-3772
게유	-3773
게임	-3774
게찌	-3775
결심	-3776
겼어	-3777
교시	-3778
규나	-3779
글이	-3780
기만	-3781
길에	-3782
깼어	-3783
끝날	-3784
끼리	-3785
나봄	-3786
났네	-3787
냐규	-3788
년아	-3789
놈의	-3790
놨음	-3791
눈데	-3792
는듯	-3793
니더	-3794
니딥	-3795
도되	-3796
도리	-3797
돈데	-3798
됐어	-3799
된거	-3800
드라	-3801
디션	-3802
때도	-3803
때매	-3804
라공	-3805
라리	-3806
라면	-3807
려니	-3808
리어	-3809
마어	-3810
맞다	-3811
맞지	-3812
맥주	-3813
명이	-3814
물어	-3815
받고	-3816
받았	-3817
방에	-3818
번이	-3819
보구	-3820
보냄	-3821
볼래	-3822
봤다	-3823
브샤	-3824
빨라	-3825
사고	-3826
사지	-3827
색이	-3828
쇼핑	-3829
수거	-3830
스트	-3831
십리	-3832
싸고	-3833
써요	-3834
아지	-3835
안가	-3836
안봐	-3837
안에	-3838
안와	-3839
알려	-3840
애서	-3841
야함	-3842
어나	-3843
어때	-3844
없다	-3845
었고	-3846
었음	-3847
었지	-3848
에도	-3849
에여	-3850
오착	-3851
올까	-3852
와쪄	-3853
왔네	-3854
왔대	-3855
왔오	-3856
용히	-3857
은듯	-3858
이넹	-3859
이염	-3860
이죵	-3861
일찍	-3862
있게	-3863
자낭	-3864
자는	-3865
저리	-3866
저씨	-3867
적이	-3868
정은	-3869
조심	-3870
조씨	-3871
줄래	-3872
쥬ᅥ	-3873
지면	-3874
진다	-3875
집가	-3876
쨌든	-3877
찍어	-3878
찮아	-3879
천국	-3880
출발	-3881
취소	-3882
치네	-3883
카드	-3884
키고	-3885
키킼	-3886
터디	-3887
파이	-3888
풉키	-3889
하대	-3890
하루	-3891
한건	-3892
한게	-3893
한줄	-3894
할만	-3895
할인	-3896
함냐	-3897
해도	-3898
해봐	-3899
햌ᄉ	-3900
ver	-3901
▁55	-3902
▁~~	-3903
▁ᄇᄅ	-3904
▁ᄒᄅ	-3905
▁가시	-3906
▁가위	-3907
▁가족	-3908
▁갈듯	-3909
▁갔네	-3910
▁개빡	-3911
▁걸리	-3912
▁것도	-3913
▁겜중	-3914
▁계획	-3915
▁고고	-3916
▁고비	-3917
▁구워	-3918
▁국물	-3919
▁그쯤	-3920
▁글케	-3921
▁금토	-3922
▁긍까	-3923
▁기럼	-3924
▁기절	-3925
▁기죽	-3926
▁까지	-3927
▁나눠	-3928
▁나을	-3929
▁난리	-3930
▁남아	-3931
▁네넵	-3932
▁노원	-3933
▁누웠	-3934
▁눈물	-3935
▁다치	-3936
▁닷지	-3937
▁더더	-3938
▁더캠	-3939
▁덮밥	-3940
▁데꼬	-3941
▁동묘	-3942
▁됐네	-3943
▁되고	-3944
▁되네	-3945
▁둘러	-3946
▁듀오	-3947
▁드실	-3948
▁들을	-3949
▁때려	-3950
▁마주	-3951
▁만든	-3952
▁만원	-3953
▁만족	-3954
▁만큼	-3955
▁많은	-3956
▁말아	-3957
▁맛집	-3958
▁매일	-3959
▁매출	-3960
▁머거	-3961
▁머래	-3962
▁머함	-3963
▁머해	-3964
▁먹음	-3965
▁먼가	-3966
▁먼데	-3967
▁메뉴	-3968
▁면담	-3969
▁목자	-3970
▁몰래	-3971
▁못생	-3972
▁무사	-3973
▁묵자	-3974
▁문닫	-3975
▁뭐징	-3976
▁뭐할	-3977
▁미들	-3978
▁미쳐	-3979
▁바쁘	-3980
▁박혀	-3981
▁반팔	-3982
▁배부	-3983
▁버려	-3984
▁보낸	-3985
▁보면	-3986
▁보쌈	-3987
▁볼게	-3988
▁봐서	-3989
▁부담	-3990
▁부셔	-3991
▁분명	-3992
▁빙고	-3993
▁샤워	-3994
▁설치	-3995
▁솔직	-3996
▁수강	-3997
▁수학	-3998
▁수호	-3999
▁술마	-4000
▁술먹	-4001
▁쉬자	-4002
▁시바	-4003
▁신기	-4004
▁실망	-4005
▁아퍼	-4006
▁아하	-4007
▁안갈	-4008
▁안올	-4009
▁안왔	-4010
▁안하	-4011
▁않았	-4012
▁알고	-4013
▁앙대	-4014
▁애교	-4015
▁약은	-4016
▁어울	-4017
▁어플	-4018
▁언넝	-4019
▁에궁	-4020
▁엘베	-4021
▁여긴	-4022
▁영어	-4023
▁오마	-4024
▁오킹	-4025
▁온제	-4026
▁올려	-4027
▁와라	-4028
▁완료	-4029
▁왜애	-4030
▁월곡	-4031
▁위험	-4032
▁유산	-4033
▁으흥	-4034
▁음음	-4035
▁이만	-4036
▁이별	-4037
▁이잉	-4038
▁이젠	-4039
▁인나	-4040
▁일로	-4041
▁있니	-4042
▁자갸	-4043
▁자다	-4044
▁자랑	-4045
▁자신	-4046
▁자아	-4047
▁작업	-4048
▁잔다	-4049
▁잡아	-4050
▁적응	-4051
▁점점	-4052
▁제육	-4053
▁종강	-4054
▁좋을	-4055
▁준엽	-4056
▁준형	-4057
▁증말	-4058
▁지갑	-4059
▁지우	-4060
▁지짜	-4061
▁지현	-4062
▁진동	-4063
▁진지	-4064
▁집이	-4065
▁청량	-4066
▁치돈	-4067
▁침대	-4068
▁칼퇴	-4069
▁큐큐	-4070
▁크크	-4071
▁태워	-4072
▁펜션	-4073
▁푹쉬	-4074
▁프린	-4075
▁하러	-4076
▁한명	-4077
▁할만	-4078
▁함께	-4079
▁해도	-4080
▁해준	-4081
▁했지	-4082
▁허ᅡ	-4083
▁허락	-4084
▁형이	-4085
▁화채	-4086
▁환불	-4087
▁회의	-4088
▁흐잉	-4089
▁히익	-4090
▁힘든	-4091
가려고	-4092
가려구	-4093
같으면	-4094
같은거	-4095
것저것	-4096
고싶음	-4097
구만유	-4098
까지는	-4099
나왔어	-4100
났는데	-4101
냐니까	-4102
는거지	-4103
는시간	-4104
는지는	-4105
도리탕	-4106
도착했	-4107
보는중	-4108
보자구	-4109
봐야지	-4110
분도착	-4111
브샤브	-4112
시간은	-4113
시에는	-4114
시켰어	-4115
식으로	-4116
아녀유	-4117
야게따	-4118
오는거	-4119
이였어	-4120
인가봐	-4121
일어나	-4122
하구만	-4123
하러가	-4124
해보여	-4125
해야돼	-4126
했구나	-4127
했나봐	-4128
했잖아	-4129
했지만	-4130
▁500	-4131
▁가니까	-4132
▁가면서	-4133
▁감정을	-4134
▁강의듣	-4135
▁개웃겨	-4136
▁걸린대	-4137
▁고구마	-4138
▁공부할	-4139
▁그럴게	-4140
▁그레도	-4141
▁급하게	-4142
▁기염아	-4143
▁깜빠뉴	-4144
▁끝까지	-4145
▁나가유	-4146
▁나갈까	-4147
▁나온다	-4148
▁나올때	-4149
▁나왔오	-4150
▁내린다	-4151
▁네이스	-4152
▁놀다가	-4153
▁농땡이	-4154
▁누워있	-4155
▁늦으면	-4156
▁다다음	-4157
▁다른데	-4158
▁다이소	-4159
▁다하고	-4160
▁다행쓰	-4161
▁다행히	-4162
▁닭강정	-4163
▁담배도	-4164
▁담배펴	-4165
▁대학원	-4166
▁대해서	-4167
▁데리고	-4168
▁도오착	-4169
▁되겠다	-4170
▁두둥탁	-4171
▁듣고싶	-4172
▁들어서	-4173
▁들어요	-4174
▁떨어져	-4175
▁만약에	-4176
▁말해봐	-4177
▁맘대루	-4178
▁맛있겠	-4179
▁맞으면	-4180
▁머글까	-4181
▁머리가	-4182
▁먹고있	-4183
▁먹는거	-4184
▁먹는다	-4185
▁먹었네	-4186
▁먼치킨	-4187
▁무서워	-4188
▁무슨맛	-4189
▁뭐하게	-4190
▁뭐하고	-4191
▁뭐하냐	-4192
▁민정아	-4193
▁바코드	-4194
▁반정도	-4195
▁밥먼저	-4196
▁보는데	-4197
▁보이네	-4198
▁봤는데	-4199
▁부르고	-4200
▁붙어있	-4201
▁붙이고	-4202
▁빠르군	-4203
▁사갈게	-4204
▁사다리	-4205
▁상관없	-4206
▁생각은	-4207
▁생각중	-4208
▁설명회	-4209
▁쉬러감	-4210
▁스터디	-4211
▁시무룩	-4212
▁시원해	-4213
▁시켜서	-4214
▁실장님	-4215
▁아라쏘	-4216
▁아저씨	-4217
▁아직은	-4218
▁안가져	-4219
▁안남았	-4220
▁안되서	-4221
▁안될까	-4222
▁안만나	-4223
▁안바빠	-4224
▁안받아	-4225
▁안보내	-4226
▁안왔어	-4227
▁안조아	-4228
▁안좋아	-4229
▁안챙겨	-4230
▁안하니	-4231
▁알려줌	-4232
▁알밥집	-4233
▁암것두	-4234
▁애기두	-4235
▁애들은	-4236
▁어디양	-4237
▁어떠니	-4238
▁언제쉬	-4239
▁없는디	-4240
▁여기에	-4241
▁연락주	-4242
▁열차타	-4243
▁옛날에	-4244
▁오디야	-4245
▁원래는	-4246
▁윤지원	-4247
▁으이구	-4248
▁이따봥	-4249
▁이런거	-4250
▁이번주	-4251
▁이어폰	-4252
▁이해해	-4253
▁일번지	-4254
▁일해요	-4255
▁입었어	-4256
▁있었어	-4257
▁자기꺼	-4258
▁자리가	-4259
▁잘하구	-4260
▁잘해써	-4261
▁재밌니	-4262
▁쟈기두	-4263
▁전수빈	-4264
▁전화함	-4265
▁전화했	-4266
▁조용히	-4267
▁좋구나	-4268
▁좋은데	-4269
▁지금도	-4270
▁쩜장님	-4271
▁차라리	-4272
▁추울발	-4273
▁축하해	-4274
▁출발해	-4275
▁친구랑	-4276
▁컨디션	-4277
▁퇴근띠	-4278
▁파스타	-4279
▁파이리	-4280
▁하고있	-4281
▁해놓고	-4282
▁해줄게	-4283
▁현지도	-4284
▁혹시나	-4285
▁화내서	-4286
▁힘내자	-4287
▁힘드러	-4288
것같은데	-4289
겠슙니다	-4290
고있어용	-4291
단말이야	-4292
하고싶어	-4293
하는거야	-4294
할수도있	-4295
했으니까	-4296
▁가고싶은	-4297
▁가보자잇	-4298
▁가져가서	-4299
▁갔다와요	-4300
▁강의듣고	-4301
▁걱정말고	-4302
▁고생했네	-4303
▁귀찮으면	-4304
▁그러니까	-4305
▁그러려니	-4306
▁기분좋게	-4307
▁나누다가	-4308
▁늦게끝나	-4309
▁다녀오껭	-4310
▁담배한대	-4311
▁데리러가	-4312
▁도착이다	-4313
▁도착이야	-4314
▁도착할듯	-4315
▁들어와쓔	-4316
▁따듯하게	-4317
▁마감준비	-4318
▁만나기로	-4319
▁먹어야징	-4320
▁먹을거임	-4321
▁모르겠네	-4322
▁보고싶네	-4323
▁분리수거	-4324
▁상관없어	-4325
▁샤브샤브	-4326
▁석계광장	-4327
▁수강신청	-4328
▁쉴거에요	-4329
▁시켰어용	-4330
▁씻고올겡	-4331
▁아냐아냐	-4332
▁아니에요	-4333
▁아직이욤	-4334
▁앉아있음	-4335
▁알려줄게	-4336
▁알았는데	-4337
▁얘기하자	-4338
▁어디쯤야	-4339
▁얼른갈게	-4340
▁오늘부터	-4341
▁왔다갔다	-4342
▁울집에서	-4343
▁원준이랑	-4344
▁이따봐요	-4345
▁일어나요	-4346
▁읽고씹어	-4347
▁잘갔다와	-4348
▁장원이집	-4349
▁쟈기쟈기	-4350
▁전화하면	-4351
▁정신없이	-4352
▁준비하고	-4353
▁준비해요	-4354
▁진심으로	-4355
▁챙겨먹어	-4356
▁출발하면	-4357
▁출발합니	-4358
▁쿄쿄쿄쿄	-4359
▁토요일에	-4360
▁퇴근하고	-4361
▁퇴근할때	-4362
▁편한대루	-4363
▁하고있어	-4364
▁학교가서	-4365
▁함냐함냐	-4366
▁호준이랑	-4367
도착했어요	-4368
▁가고싶으면	-4369
▁감사합니다	-4370
▁강의들으러	-4371
▁공부중이야	-4372
▁공부하느라	-4373
▁교수님이랑	-4374
▁기다리는즁	-4375
▁끝날거같아	-4376
▁다녀오세용	-4377
▁다녀오세유	-4378
▁맛있어보여	-4379
▁모르겠지만	-4380
▁물어봤는데	-4381
▁뭐하구있니	-4382
▁미아내ᅲᅲ	-4383
▁보고싶어서	-4384
▁보고싶어요	-4385
▁수업들으러	-4386
▁쉬고있어요	-4387
▁앉아있다가	-4388
▁엄마집에서	-4389
▁연구실가서	-4390
▁자기집에서	-4391
▁천천히와요	-4392
▁출근합니다	-4393
▁한시간뒤에	-4394
▁헤어질결심	-4395
▁기다리고있어	-4396
▁들어가기전에	-4397
▁들어갈게요잉	-4398
▁부점장님이랑	-4399
▁공부하구있어요	-4400
-1	-4401
22	-4402
AR	-4403
SE	-4404
di	-4405
ob	-4406
od	-4407
uc	-4408
ᄀᄎ	-4409
ᄅ케	-4410
ᅧᄂ	-4411
▁"	-4412
▁A	-4413
▁J	-4414
▁Y	-4415
▁d	-4416
▁k	-4417
▁o	-4418
▁p	-4419
▁t	-4420
▁갓	-4421
▁갱	-4422
▁견	-4423
▁곤	-4424
▁군	-4425
▁규	-4426
▁귱	-4427
▁긁	-4428
▁껐	-4429
▁났	-4430
▁넉	-4431
▁널	-4432
▁녹	-4433
▁닮	-4434
▁댕	-4435
▁던	-4436
▁독	-4437
▁딸	-4438
▁뚱	-4439
▁러	-4440
▁먄	-4441
▁빛	-4442
▁뺏	-4443
▁뻘	-4444
▁싹	-4445
▁왓	-4446
▁왠	-4447
▁짠	-4448
▁짤	-4449
▁쨕	-4450
▁캬	-4451
▁탐	-4452
▁탑	-4453
▁탱	-4454
▁판	-4455
▁폭	-4456
▁품	-4457
▁픽	-4458
▁헌	-4459
▁홍	-4460
▁흔	-4461
▁흘	-4462
▁😄	-4463
가루	-4464
가리	-4465
간닷	-4466
강의	-4467
거래	-4468
거면	-4469
거운	-4470
걸루	-4471
걸리	-4472
계인	-4473
고래	-4474
구라	-4475
구와	-4476
귀여	-4477
그런	-4478
기면	-4479
긴다	-4480
김에	-4481
까먹	-4482
남았	-4483
냐뷰	-4484
놓으	-4485
놨어	-4486
는겨	-4487
니닷	-4488
더거	-4489
덮밥	-4490
도안	-4491
도척	-4492
동집	-4493
될듯	-4494
두고	-4495
뒹굴	-4496
드러	-4497
드림	-4498
드실	-4499
디야	-4500
때나	-4501
때쯤	-4502
땜에	-4503
라이	-4504
라함	-4505
라해	-4506
란다	-4507
러워	-4508
럽게	-4509
럽지	-4510
레옹	-4511
롬들	-4512
르면	-4513
리게	-4514
리만	-4515
리바	-4516
리스	-4517
리에	-4518
리오	-4519
리자	-4520
리지	-4521
리카	-4522
릴까	-4523
마려	-4524
마리	-4525
마싯	-4526
만날	-4527
맞춰	-4528
매님	-4529
머금	-4530
먹규	-4531
먹오	-4532
메뉴	-4533
멤버	-4534
목어	-4535
몰랐	-4536
못해	-4537
무야	-4538
미널	-4539
미안	-4540
미워	-4541
바다	-4542
박혀	-4543
버님	-4544
베베	-4545
보께	-4546
보냈	-4547
보는	-4548
본다	-4549
봐야	-4550
부리	-4551
븐에	-4552
빠르	-4553
뿌니	-4554
산물	-4555
상관	-4556
셨네	-4557
셨대	-4558
쇼잉	-4559
수는	-4560
수록	-4561
슬아	-4562
시라	-4563
시면	-4564
실까	-4565
싯팔	-4566
싶어	-4567
쑤엑	-4568
쓰구	-4569
아닌	-4570
아주	-4571
알바	-4572
알아	-4573
어니	-4574
어써	-4575
얼른	-4576
었으	-4577
에게	-4578
에있	-4579
엽지	-4580
였나	-4581
오구	-4582
오키	-4583
와라	-4584
와소	-4585
왔엉	-4586
외로	-4587
우ᅩ	-4588
웃음	-4589
으니	-4590
은가	-4591
은게	-4592
이게	-4593
이랴	-4594
이트	-4595
인뎅	-4596
인줄	-4597
일러	-4598
임둥	-4599
있노	-4600
있닝	-4601
자노	-4602
자식	-4603
잘못	-4604
잡고	-4605
잡아	-4606
장실	-4607
정님	-4608
정이	-4609
제품	-4610
졌네	-4611
조기	-4612
존맛	-4613
주도	-4614
주애	-4615
지어	-4616
진않	-4617
진이	-4618
집어	-4619
징어	-4620
쳤어	-4621
출근	-4622
출로	-4623
카페	-4624
콜렛	-4625
쿠만	-4626
킨다	-4627
터넷	-4628
테이	-4629
토닥	-4630
통화	-4631
티콘	-4632
파티	-4633
포도	-4634
픈데	-4635
피면	-4636
핀다	-4637
하오	-4638
하하	-4639
한디	-4640
할뻔	-4641
해따	-4642
해장	-4643
했니	-4644
했엉	-4645
험회	-4646
현지	-4647
혈약	-4648
후랑	-4649
히려	-4650
힘들	-4651
ctv	-4652
zzz	-4653
▁17	-4654
▁2-	-4655
▁24	-4656
▁26	-4657
▁27	-4658
▁^^	-4659
▁co	-4660
▁ne	-4661
▁ᄆᄎ	-4662
▁ᄈᄅ	-4663
▁ᄉᄀ	-4664
▁ᄐᄏ	-4665
▁가깝	-4666
▁간당	-4667
▁감점	-4668
▁같고	-4669
▁개열	-4670
▁거절	-4671
▁검색	-4672
▁결제	-4673
▁공감	-4674
▁공주	-4675
▁괴물	-4676
▁교슈	-4677
▁교육	-4678
▁귱금	-4679
▁그쳤	-4680
▁글쎄	-4681
▁급식	-4682
▁기회	-4683
▁김태	-4684
▁깜빡	-4685
▁깨워	-4686
▁꺼내	-4687
▁끼잉	-4688
▁나를	-4689
▁나무	-4690
▁나서	-4691
▁나의	-4692
▁나폴	-4693
▁날짜	-4694
▁낫지	-4695
▁내리	-4696
▁넉넉	-4697
▁노놉	-4698
▁논문	-4699
▁농구	-4700
▁누리	-4701
▁느껴	-4702
▁느꼈	-4703
▁다가	-4704
▁다리	-4705
▁단수	-4706
▁달아	-4707
▁닭발	-4708
▁답답	-4709
▁당근	-4710
▁대창	-4711
▁대화	-4712
▁댕겨	-4713
▁던킨	-4714
▁덥고	-4715
▁덥다	-4716
▁되는	-4717
▁된대	-4718
▁두근	-4719
▁뒤돌	-4720
▁드시	-4721
▁들려	-4722
▁뚝딱	-4723
▁뛰어	-4724
▁레츠	-4725
▁렌즈	-4726
▁마자	-4727
▁막담	-4728
▁만난	-4729
▁만드	-4730
▁말은	-4731
▁말함	-4732
▁맛나	-4733
▁망가	-4734
▁맞나	-4735
▁맥주	-4736
▁머선	-4737
▁먹는	-4738
▁먹오	-4739
▁멀라	-4740
▁모두	-4741
▁모든	-4742
▁모자	-4743
▁못먹	-4744
▁못찾	-4745
▁못함	-4746
▁무시	-4747
▁뭔일	-4748
▁뭔지	-4749
▁밑에	-4750
▁바꼈	-4751
▁바꾸	-4752
▁바닥	-4753
▁반쯤	-4754
▁받음	-4755
▁방해	-4756
▁벗어	-4757
▁별거	-4758
▁보게	-4759
▁보기	-4760
▁복귀	-4761
▁본다	-4762
▁볼래	-4763
▁봐요	-4764
▁봐용	-4765
▁빡세	-4766
▁빤니	-4767
▁사갈	-4768
▁사러	-4769
▁사야	-4770
▁사용	-4771
▁사줘	-4772
▁살게	-4773
▁살살	-4774
▁삼겹	-4775
▁상담	-4776
▁상태	-4777
▁생선	-4778
▁선배	-4779
▁성격	-4780
▁섹스	-4781
▁쇼핑	-4782
▁수건	-4783
▁수고	-4784
▁수목	-4785
▁수있	-4786
▁쉴까	-4787
▁쉴듯	-4788
▁쉽게	-4789
▁시벌	-4790
▁실패	-4791
▁싶다	-4792
▁쓰러	-4793
▁씻거	-4794
▁아뇨	-4795
▁아야	-4796
▁안갔	-4797
▁안경	-4798
▁안된	-4799
▁안씻	-4800
▁안옴	-4801
▁안자	-4802
▁안잡	-4803
▁안정	-4804
▁안통	-4805
▁안할	-4806
▁않고	-4807
▁알라	-4808
▁애귀	-4809
▁약통	-4810
▁양보	-4811
▁양치	-4812
▁어떰	-4813
▁어직	-4814
▁얻어	-4815
▁없대	-4816
▁에엥	-4817
▁에이	-4818
▁에효	-4819
▁여친	-4820
▁열어	-4821
▁예압	-4822
▁오댜	-4823
▁오셈	-4824
▁와두	-4825
▁와떠	-4826
▁와용	-4827
▁와우	-4828
▁완죤	-4829
▁왜그	-4830
▁왜에	-4831
▁왜왜	-4832
▁왜요	-4833
▁왠지	-4834
▁외식	-4835
▁우짤	-4836
▁웃기	-4837
▁윙스	-4838
▁으잉	-4839
▁은행	-4840
▁음료	-4841
▁음성	-4842
▁의자	-4843
▁이모	-4844
▁이십	-4845
▁이재	-4846
▁인누	-4847
▁입구	-4848
▁있네	-4849
▁자ᅵ	-4850
▁자동	-4851
▁자르	-4852
▁잔뜩	-4853
▁잘때	-4854
▁잤네	-4855
▁재워	-4856
▁잼게	-4857
▁점수	-4858
▁정민	-4859
▁정상	-4860
▁정확	-4861
▁조언	-4862
▁조케	-4863
▁존중	-4864
▁졸리	-4865
▁좋대	-4866
▁주거	-4867
▁주방	-4868
▁죽여	-4869
▁죽을	-4870
▁줄게	-4871
▁중랑	-4872
▁집들	-4873
▁집어	-4874
▁쨕이	-4875
▁쪼끔	-4876
▁창문	-4877
▁창신	-4878
▁창업	-4879
▁처럼	-4880
▁추천	-4881
▁칭구	-4882
▁카공	-4883
▁쿠팡	-4884
▁큰실	-4885
▁태풍	-4886
▁토론	-4887
▁토일	-4888
▁튀어	-4889
▁틀고	-4890
▁팬티	-4891
▁편지	-4892
▁편해	-4893
▁포스	-4894
▁포함	-4895
▁푸딩	-4896
▁품절	-4897
▁하얀	-4898
▁한테	-4899
▁핫팩	-4900
▁해결	-4901
▁해두	-4902
▁해헤	-4903
▁햇반	-4904
▁했다	-4905
▁행동	-4906
▁헥헥	-4907
▁확정	-4908
▁환승	-4909
▁황올	-4910
▁후딱	-4911
▁후배	-4912
▁휴무	-4913
▁히힛	-4914
▁힐링	-4915
같아서	-4916
거같음	-4917
고마워	-4918
고있는	-4919
구만요	-4920
그랴서	-4921
기로함	-4922
끝내고	-4923
나보군	-4924
나봐요	-4925
네ᅲᅲ	-4926
놨는데	-4927
다ᅲᅲ	-4928
다해서	-4929
돈까스	-4930
됐으면	-4931
되는데	-4932
드리고	-4933
들한테	-4934
등학교	-4935
라니까	-4936
라이스	-4937
리는중	-4938
만나서	-4939
말라구	-4940
먹어서	-4941
멤버십	-4942
버렸지	-4943
버리게	-4944
보다가	-4945
보면서	-4946
보여서	-4947
보인다	-4948
사갈까	-4949
사랑해	-4950
셨어요	-4951
수이써	-4952
수있음	-4953
슙니당	-4954
슬아슬	-4955
시간도	-4956
안하니	-4957
안하면	-4958
애들은	-4959
야겠따	-4960
없는거	-4961
었는디	-4962
에다가	-4963
우는중	-4964
으니께	-4965
은사람	-4966
을까봐	-4967
이스톡	-4968
이써용	-4969
입구로	-4970
있을때	-4971
정도면	-4972
줄거야	-4973
줄수있	-4974
줘야지	-4975
줬는데	-4976
지도않	-4977
챙기고	-4978
탔어요	-4979
하는즁	-4980
하려구	-4981
하세요	-4982
하시네	-4983
한다잉	-4984
할게유	-4985
했겠네	-4986
했는디	-4987
했으면	-4988
▁300	-4989
▁ᄀᄎ지	-4990
▁ᄏᄐᄐ	-4991
▁ᄒᄒᄒ	-4992
▁가셨어	-4993
▁가있어	-4994
▁가자고	-4995
▁갈거면	-4996
▁갈아입	-4997
▁갔는데	-4998
▁강사님	-4999
▁강아지	-5000
▁같아요	-5001
▁같으면	-5002
▁같은거	-5003
▁같은디	-5004
▁개웃기	-5005
▁공부즁	-5006
▁귀엽지	-5007
▁귀찮아	-5008
▁그거랑	-5009
▁그런가	-5010
▁그런지	-5011
▁그렇네	-5012
▁그르게	-5013
▁글쿠만	-5014
▁깨워서	-5015
▁깼어요	-5016
▁끝나유	-5017
▁끝났니	-5018
▁나가기	-5019
▁나가면	-5020
▁나갈겡	-5021
▁나왔다	-5022
▁나이가	-5023
▁남아따	-5024
▁남았어	-5025
▁내리면	-5026
▁너무좋	-5027
▁놀고싶	-5028
▁놀아요	-5029
▁누구야	-5030
▁다와가	-5031
▁단호박	-5032
▁담배만	-5033
▁대박사	-5034
▁대존맛	-5035
▁더우면	-5036
▁더운데	-5037
▁더워서	-5038
▁델리만	-5039
▁도착스	-5040
▁도착안	-5041
▁도착염	-5042
▁도착이	-5043
▁동대문	-5044
▁동묘앞	-5045
▁되니까	-5046
▁듣는중	-5047
▁들어왔	-5048
▁들오가	-5049
▁디지게	-5050
▁따랑해	-5051
▁똑같이	-5052
▁라이터	-5053
▁마사지	-5054
▁마중나	-5055
▁만나고	-5056
▁말이야	-5057
▁말하는	-5058
▁말한건	-5059
▁말해주	-5060
▁맛난거	-5061
▁맞아유	-5062
▁먹는중	-5063
▁먹는즁	-5064
▁먹어쓔	-5065
▁먹었지	-5066
▁모르고	-5067
▁모하게	-5068
▁몰라서	-5069
▁못하겠	-5070
▁뭐라셔	-5071
▁뭐먹게	-5072
▁뭐먹지	-5073
▁뭐하러	-5074
▁미친년	-5075
▁민수랑	-5076
▁밀가루	-5077
▁받아들	-5078
▁밥먹게	-5079
▁배고팡	-5080
▁버리구	-5081
▁버스타	-5082
▁별로야	-5083
▁보고파	-5084
▁보는중	-5085
▁보문역	-5086
▁보험회	-5087
▁봐준다	-5088
▁봐줘잉	-5089
▁불러서	-5090
▁비온대	-5091
▁빈혈약	-5092
▁빠르게	-5093
▁빨리와	-5094
▁뼈해장	-5095
▁사다죠	-5096
▁사야지	-5097
▁사장님	-5098
▁사줄게	-5099
▁새로운	-5100
▁생각도	-5101
▁생각에	-5102
▁생각을	-5103
▁생리대	-5104
▁서운한	-5105
▁석계역	-5106
▁선풍기	-5107
▁속상쓰	-5108
▁수업듣	-5109
▁쉬고있	-5110
▁쉬는중	-5111
▁쉽지않	-5112
▁시간좀	-5113
▁시킨다	-5114
▁시험은	-5115
▁신경써	-5116
▁신제품	-5117
▁신주애	-5118
▁심지어	-5119
▁씻는다	-5120
▁씻어요	-5121
▁씻었슈	-5122
▁씻으러	-5123
▁씻을게	-5124
▁아닌교	-5125
▁아버님	-5126
▁아부지	-5127
▁아이씨	-5128
▁아자자	-5129
▁안고있	-5130
▁안끝나	-5131
▁안나오	-5132
▁안냐뷰	-5133
▁안먹었	-5134
▁안먹음	-5135
▁안물어	-5136
▁안써도	-5137
▁안와서	-5138
▁안하네	-5139
▁앉아있	-5140
▁않아서	-5141
▁알람도	-5142
▁알람이	-5143
▁알려죠	-5144
▁알면서	-5145
▁암때나	-5146
▁애기랑	-5147
▁애들도	-5148
▁얀구실	-5149
▁얘기가	-5150
▁얘기나	-5151
▁얘기는	-5152
▁얘기할	-5153
▁어려워	-5154
▁어이가	-5155
▁어제는	-5156
▁언제야	-5157
▁얼굴만	-5158
▁얼굴이	-5159
▁없어요	-5160
▁여기는	-5161
▁연락이	-5162
▁연락줘	-5163
▁오셔서	-5164
▁오징어	-5165
▁올거야	-5166
▁올게요	-5167
▁왔는데	-5168
▁왜구래	-5169
▁왜그래	-5170
▁요정님	-5171
▁우산이	-5172
▁움직이	-5173
▁웃어줘	-5174
▁웹툰보	-5175
▁웹툰봐	-5176
▁으응ᄋ	-5177
▁응응ᄋ	-5178
▁의외로	-5179
▁이거봐	-5180
▁이뿌네	-5181
▁이쁘네	-5182
▁인터넷	-5183
▁일어날	-5184
▁일하기	-5185
▁잃어버	-5186
▁임티콘	-5187
▁있겠다	-5188
▁있겠지	-5189
▁있을때	-5190
▁자귀는	-5191
▁자기듀	-5192
▁자니까	-5193
▁자아기	-5194
▁잘됐네	-5195
▁잘됐다	-5196
▁잘생겼	-5197
▁잘하면	-5198
▁잘해라	-5199
▁잘해주	-5200
▁잘해줘	-5201
▁잤어요	-5202
▁재밌어	-5203
▁저새끼	-5204
▁정말루	-5205
▁정신차	-5206
▁제주도	-5207
▁조아용	-5208
▁좋아용	-5209
▁좋아해	-5210
▁좋으면	-5211
▁좋은디	-5212
▁주셨어	-5213
▁준비중	-5214
▁준비해	-5215
▁준서씨	-5216
▁중국인	-5217
▁지금봤	-5218
▁짐싸고	-5219
▁집가유	-5220
▁짱박혀	-5221
▁창피해	-5222
▁채히랑	-5223
▁챙겨가	-5224
▁첫번째	-5225
▁청량리	-5226
▁초콜렛	-5227
▁최고야	-5228
▁출근잘	-5229
▁충분해	-5230
▁클리어	-5231
▁퇴근함	-5232
▁프린트	-5233
▁하나는	-5234
▁하니딥	-5235
▁하려고	-5236
▁하지마	-5237
▁학식먹	-5238
▁한마리	-5239
▁한번에	-5240
▁할거야	-5241
▁해산물	-5242
▁해야되	-5243
▁했자나	-5244
▁했잖아	-5245
▁허리는	-5246
▁헤어져	-5247
▁현지두	-5248
▁형이랑	-5249
▁홍진이	-5250
가고있어	-5251
것같아용	-5252
긴했는데	-5253
는중이야	-5254
도착했어	-5255
먹어야지	-5256
수도있어	-5257
습니다요	-5258
시간동안	-5259
시간이나	-5260
이였어요	-5261
하구있지	-5262
하지말구	-5263
해볼게요	-5264
해야겠다	-5265
했나보네	-5266
▁ᄀᄎᄀᄎ	-5267
▁ᄋᄌᄋᄌ	-5268
▁가보자가	-5269
▁가보자구	-5270
▁가있을게	-5271
▁갈아타요	-5272
▁같이가자	-5273
▁걱정시켜	-5274
▁고생해써	-5275
▁공부하게	-5276
▁공부하구	-5277
▁괜찮겠다	-5278
▁괜찮겠어	-5279
▁괜찮은데	-5280
▁궁금해서	-5281
▁귀찮아서	-5282
▁그랬는데	-5283
▁그랬더니	-5284
▁금방가요	-5285
▁금방갈게	-5286
▁기다려줘	-5287
▁기분조아	-5288
▁기억안나	-5289
▁김밥천국	-5290
▁나가야지	-5291
▁나폴레옹	-5292
▁남았는데	-5293
▁노래방가	-5294
▁누워이쓔	-5295
▁누웠어요	-5296
▁늦게오네	-5297
▁다녀와랏	-5298
▁다른사람	-5299
▁다먹어쪄	-5300
▁다먹었엉	-5301
▁다행인가	-5302
▁담배하나	-5303
▁도착이용	-5304
▁도착해따	-5305
▁도착했니	-5306
▁도착했슈	-5307
▁듣고싶어	-5308
▁듣고있어	-5309
▁들어가면	-5310
▁들어갔니	-5311
▁마시게따	-5312
▁마싯는거	-5313
▁말해주고	-5314
▁말해줄게	-5315
▁먹구시퍼	-5316
▁먹었어용	-5317
▁몰라몰라	-5318
▁물어보고	-5319
▁물어보면	-5320
▁뭐먹었어	-5321
▁미치겠어	-5322
▁보고싶지	-5323
▁부담스러	-5324
▁사람들도	-5325
▁생각나서	-5326
▁서운했던	-5327
▁석계에서	-5328
▁솔직하게	-5329
▁시작했어	-5330
▁심심하면	-5331
▁아니겠지	-5332
▁아니라고	-5333
▁아무것도	-5334
▁아쉽지만	-5335
▁아슬아슬	-5336
▁아프지마	-5337
▁안되겠다	-5338
▁안먹었어	-5339
▁알려줘서	-5340
▁야무지게	-5341
▁얘기하구	-5342
▁얘기해줘	-5343
▁어ᅢᄅ케	-5344
▁엎드려서	-5345
▁연구실로	-5346
▁연락해죠	-5347
▁오늘하루	-5348
▁오자마자	-5349
▁월요일에	-5350
▁윙스버거	-5351
▁이것저것	-5352
▁이상하게	-5353
▁이상하다	-5354
▁일어나쓔	-5355
▁일요일에	-5356
▁있었구나	-5357
▁자러가요	-5358
▁잘다녀왕	-5359
▁저나할겡	-5360
▁저나해용	-5361
▁저나해죠	-5362
▁전화와서	-5363
▁조심하구	-5364
▁조아조아	-5365
▁좋아좋아	-5366
▁준비하구	-5367
▁집가고파	-5368
▁집가려고	-5369
▁창피해서	-5370
▁챙겨갈게	-5371
▁챙겨먹고	-5372
▁천천히와	-5373
▁출근한다	-5374
▁출근해서	-5375
▁출근해용	-5376
▁출발해써	-5377
▁출발했어	-5378
▁키키키킼	-5379
▁택시타고	-5380
▁퇴근시간	-5381
▁티멤버십	-5382
▁페이스톡	-5383
▁피곤하면	-5384
▁피시방가	-5385
▁학교가요	-5386
▁학교간다	-5387
▁한시간반	-5388
▁할머니집	-5389
▁했으니까	-5390
▁현정이랑	-5391
▁화장실가	-5392
▁홧팅홧팅	-5393
고있었어요	-5394
기로했는데	-5395
~~~~~~	-5396
▁Zzzzz	-5397
▁ᅲᅲᅲᅲᅲ	-5398
▁가구있어요	-5399
▁가는중이야	-5400
▁강의끝나구	-5401
▁남겨놓을게	-5402
▁대답안하니	-5403
▁데려다줘서	-5404
▁도착이에요	-5405
▁도착이에용	-5406
▁도착입니다	-5407
▁도착해썽요	-5408
▁도착했는데	-5409
▁드가기전에	-5410
▁들어가볼게	-5411
▁들어왔어용	-5412
▁따릉이타고	-5413
▁마지막까지	-5414
▁먹으러가요	-5415
▁먹으러가유	-5416
▁먹으려구요	-5417
▁무슨일이야	-5418
▁물어보니까	-5419
▁밥먹으러왔	-5420
▁보내주는데	-5421
▁부점장님은	-5422
▁사람들이랑	-5423
▁쉅들어가유	-5424
▁시켜먹을까	-5425
▁아녀아녀유	-5426
▁얘기하다가	-5427
▁연구실가요	-5428
▁연락주세용	-5429
▁연락주쇼잉	-5430
▁열심히하구	-5431
▁일어났는데	-5432
▁잘갔다와요	-5433
▁잘다녀와용	-5434
▁잘하구이써	-5435
▁잘하구있니	-5436
▁재밌게놀아	-5437
▁저나해두대	-5438
▁정지현이랑	-5439
▁조아하는거	-5440
▁지하철에서	-5441
▁지하철타구	-5442
▁챙겨먹을게	-5443
▁천천히와유	-5444
▁출근했어요	-5445
▁카레라이스	-5446
▁카페가는즁	-5447
▁피시방에서	-5448
▁학교가려고	-5449
▁학식먹으러	-5450
▁공부중이에요	-5451
▁공부하고있어	-5452
▁공부하구이써	-5453
▁먹고싶었는데	-5454
▁사랑해사랑해	-5455
▁생각해보니까	-5456
▁연락해주세요	-5457
▁이해해달라고	-5458
▁일어나야돼서	-5459
▁먹고싶은거있어	-5460
▁밥먹으러왔어요	-5461
/3	-5462
12	-5463
55	-5464
CH	-5465
De	-5466
ai	-5467
an	-5468
ap	-5469
as	-5470
ba	-5471
es	-5472
ez	-5473
hi	-5474
na	-5475
ns	-5476
wl	-5477
ww	-5478
ᄀᄃ	-5479
ᄅᄅ	-5480
ᄉᄑ	-5481
ᄉᄒ	-5482
ᄋᄃ	-5483
ᄐᄐ	-5484
ᄑᄋ	-5485
ᄒᄅ	-5486
ᅡᄂ	-5487
ᅡᄋ	-5488
ᅢ이	-5489
ᅵᄂ	-5490
▁%	-5491
▁)	-5492
▁+	-5493
▁B	-5494
▁C	-5495
▁M	-5496
▁W	-5497
▁^	-5498
▁́	-5499
▁ᅣ	-5500
▁ᅮ	-5501
▁갸	-5502
▁겁	-5503
▁격	-5504
▁광	-5505
▁굶	-5506
▁깸	-5507
▁뀨	-5508
▁끔	-5509
▁납	-5510
▁놉	-5511
▁놔	-5512
▁눌	-5513
▁닌	-5514
▁댓	-5515
▁띠	-5516
▁런	-5517
▁롱	-5518
▁맑	-5519
▁맡	-5520
▁멜	-5521
▁멱	-5522
▁묻	-5523
▁밉	-5524
▁밝	-5525
▁밴	-5526
▁붕	-5527
▁뺀	-5528
▁뻗	-5529
▁삐	-5530
▁샐	-5531
▁셋	-5532
▁숟	-5533
▁쉑	-5534
▁슈	-5535
▁싀	-5536
▁쎄	-5537
▁업	-5538
▁엌	-5539
▁염	-5540
▁웨	-5541
▁죠	-5542
▁짧	-5543
▁짬	-5544
▁쯤	-5545
▁찐	-5546
▁찼	-5547
▁콜	-5548
▁콤	-5549
▁콩	-5550
▁쿨	-5551
▁털	-5552
▁톼	-5553
▁퇴	-5554
▁트	-5555
▁팥	-5556
▁헷	-5557
▁흰	-5558
▁💩	-5559
가나	-5560
가락	-5561
각김	-5562
간거	-5563
갑니	-5564
갔나	-5565
같네	-5566
같다	-5567
거가	-5568
거양	-5569
건뎅	-5570
걸게	-5571
걸렸	-5572
검진	-5573
겠넹	-5574
겠당	-5575
겠대	-5576
겨써	-5577
고럼	-5578
고만	-5579
고양	-5580
고임	-5581
구요	-5582
군요	-5583
그럼	-5584
글래	-5585
글와	-5586
기간	-5587
기릿	-5588
기장	-5589
긴데	-5590
꺼만	-5591
께유	-5592
끊고	-5593
나네	-5594
났오	-5595
내려	-5596
낸거	-5597
낸다	-5598
네에	-5599
년지	-5600
노코	-5601
놈들	-5602
느낌	-5603
는뎅	-5604
늦게	-5605
님은	-5606
다며	-5607
다쳐	-5608
대기	-5609
던지	-5610
데스	-5611
도없	-5612
도카	-5613
됐나	-5614
됐다	-5615
되게	-5616
될까	-5617
될뻔	-5618
둑흔	-5619
둥이	-5620
드로	-5621
들고	-5622
들오	-5623
땠어	-5624
떤데	-5625
떨려	-5626
라멘	-5627
라잉	-5628
랑이	-5629
래라	-5630
러는	-5631
러드	-5632
럽고	-5633
럽다	-5634
렌지	-5635
려는	-5636
려대	-5637
려보	-5638
려크	-5639
력이	-5640
로해	-5641
롭히	-5642
르신	-5643
른거	-5644
리콥	-5645
린데	-5646
링클	-5647
마냥	-5648
마일	-5649
마저	-5650
만두	-5651
만번	-5652
만함	-5653
말까	-5654
말만	-5655
말씀	-5656
말해	-5657
맞음	-5658
머핀	-5659
먹네	-5660
먹울	-5661
모야	-5662
모장	-5663
목오	-5664
문제	-5665
물고	-5666
뮥자	-5667
미는	-5668
미쳐	-5669
바께	-5670
박스	-5671
받으	-5672
받음	-5673
배기	-5674
버렷	-5675
버터	-5676
번은	-5677
보단	-5678
보임	-5679
봐도	-5680
봐써	-5681
부름	-5682
분걸	-5683
분도	-5684
분만	-5685
분컷	-5686
불러	-5687
빼고	-5688
뿌다	-5689
사가	-5690
사무	-5691
사에	-5692
살까	-5693
상렬	-5694
상은	-5695
상해	-5696
생님	-5697
선생	-5698
센터	-5699
셔쓔	-5700
속터	-5701
수씨	-5702
수업	-5703
수육	-5704
숙비	-5705
쉬고	-5706
쉬네	-5707
시게	-5708
시기	-5709
시다	-5710
시로	-5711
시죠	-5712
신데	-5713
신디	-5714
신사	-5715
실한	-5716
싫어	-5717
심각	-5718
썽용	-5719
쏴리	-5720
쒸익	-5721
씻고	-5722
아까	-5723
아나	-5724
아닝	-5725
아야	-5726
아오	-5727
아웃	-5728
아직	-5729
안구	-5730
안되	-5731
야됨	-5732
어떠	-5733
어색	-5734
얼굴	-5735
없네	-5736
없지	-5737
었니	-5738
여자	-5739
여지	-5740
연애	-5741
연패	-5742
였네	-5743
였음	-5744
예란	-5745
오게	-5746
오넹	-5747
오라	-5748
오렴	-5749
오빠	-5750
옹ᄉ	-5751
와쓔	-5752
완성	-5753
왔따	-5754
왔지	-5755
용ᄋ	-5756
용실	-5757
울게	-5758
울까	-5759
원에	-5760
으셔	-5761
은대	-5762
이로	-5763
이쏘	-5764
이에	-5765
이즈	-5766
이터	-5767
이티	-5768
익씨	-5769
인업	-5770
인트	-5771
일게	-5772
일때	-5773
일로	-5774
일이	-5775
임자	-5776
임택	-5777
있나	-5778
있남	-5779
있냐	-5780
있너	-5781
있다	-5782
있었	-5783
있오	-5784
자신	-5785
잘해	-5786
장은	-5787
재형	-5788
저기	-5789
저냥	-5790
절하	-5791
정식	-5792
져따	-5793
져스	-5794
조마	-5795
주셨	-5796
준거	-5797
줄아	-5798
줘용	-5799
지각	-5800
지나	-5801
지랄	-5802
직여	-5803
질문	-5804
짜나	-5805
짜리	-5806
찍음	-5807
찡거	-5808
차게	-5809
찬이	-5810
찬타	-5811
척해	-5812
친거	-5813
커플	-5814
쿠나	-5815
크림	-5816
키로	-5817
태워	-5818
테니	-5819
텐디	-5820
통도	-5821
퇴군	-5822
트밀	-5823
티비	-5824
판만	-5825
패딩	-5826
폈어	-5827
픈거	-5828
피고	-5829
하거	-5830
하까	-5831
하누	-5832
하닝	-5833
하려	-5834
하셔	-5835
하심	-5836
하죠	-5837
한것	-5838
한고	-5839
한번	-5840
한피	-5841
할지	-5842
함수	-5843
해소	-5844
해줬	-5845
해쪄	-5846
햐요	-5847
햤어	-5848
혔어	-5849
호자	-5850
홀리	-5851
흠냐	-5852
히히	-5853
114	-5854
304	-5855
Det	-5856
ail	-5857
did	-5858
job	-5859
lba	-5860
men	-5861
ood	-5862
spc	-5863
ucd	-5864
ust	-5865
www	-5866
ᅮᅮᅮ	-5867
▁13	-5868
▁18	-5869
▁36	-5870
▁37	-5871
▁56	-5872
▁80	-5873
▁;;	-5874
▁kr	-5875
▁me	-5876
▁zz	-5877
▁ᄋᄃ	-5878
▁ᄋ응	-5879
▁ᄌᄅ	-5880
▁가두	-5881
▁가장	-5882
▁간게	-5883
▁간지	-5884
▁갑니	-5885
▁갔더	-5886
▁갖다	-5887
▁같네	-5888
▁개발	-5889
▁개인	-5890
▁걔가	-5891
▁걔도	-5892
▁검은	-5893
▁것만	-5894
▁겨울	-5895
▁견뎌	-5896
▁결정	-5897
▁계단	-5898
▁계산	-5899
▁계셔	-5900
▁고양	-5901
▁고터	-5902
▁고통	-5903
▁고프	-5904
▁곤란	-5905
▁골드	-5906
▁골때	-5907
▁공짜	-5908
▁광장	-5909
▁구러	-5910
▁군대	-5911
▁굳이	-5912
▁귀염	-5913
▁귣귣	-5914
▁그론	-5915
▁그말	-5916
▁그쪽	-5917
▁근무	-5918
▁글고	-5919
▁금지	-5920
▁기간	-5921
▁기도	-5922
▁기둘	-5923
▁기모	-5924
▁기본	-5925
▁기엽	-5926
▁기침	-5927
▁기특	-5928
▁길어	-5929
▁꺼져	-5930
▁꼬옥	-5931
▁꿀밤	-5932
▁꿈꿔	-5933
▁꿑났	-5934
▁끌어	-5935
▁끝낚	-5936
▁끝난	-5937
▁끝낼	-5938
▁나둥	-5939
▁날도	-5940
▁남해	-5941
▁내렸	-5942
▁내령	-5943
▁내용	-5944
▁냐미	-5945
▁너야	-5946
▁넘게	-5947
▁넘겼	-5948
▁넘넘	-5949
▁놀랬	-5950
▁놀았	-5951
▁누군	-5952
▁눈나	-5953
▁뉴뉴	-5954
▁다르	-5955
▁다신	-5956
▁다왔	-5957
▁다향	-5958
▁닭죽	-5959
▁닭칼	-5960
▁담골	-5961
▁답을	-5962
▁댓글	-5963
▁더워	-5964
▁델러	-5965
▁도둑	-5966
▁도라	-5967
▁도와	-5968
▁돈안	-5969
▁돈은	-5970
▁돌쇠	-5971
▁동글	-5972
▁동안	-5973
▁동학	-5974
▁됐지	-5975
▁되면	-5976
▁두명	-5977
▁뒤로	-5978
▁뒤척	-5979
▁뒹굴	-5980
▁드러	-5981
▁드려	-5982
▁들은	-5983
▁딸기	-5984
▁때렸	-5985
▁때매	-5986
▁땡기	-5987
▁떡국	-5988
▁똑똑	-5989
▁라면	-5990
▁라져	-5991
▁로션	-5992
▁로운	-5993
▁롤중	-5994
▁막아	-5995
▁막판	-5996
▁만남	-5997
▁만져	-5998
▁말할	-5999
▁말혀	-6000
▁맞고	-6001
▁멀리	-6002
▁멀쩡	-6003
▁메롱	-6004
▁멜론	-6005
▁멱살	-6006
▁몇번	-6007
▁모기	-6008
▁모른	-6009
▁몬가	-6010
▁못갈	-6011
▁못놀	-6012
▁못이	-6013
▁못참	-6014
▁무난	-6015
▁무료	-6016
▁무뼈	-6017
▁무지	-6018
▁무해	-6019
▁문열	-6020
▁물이	-6021
▁뭐함	-6022
▁민증	-6023
▁민폐	-6024
▁믿고	-6025
▁바꿔	-6026
▁바부	-6027
▁발이	-6028
▁밥만	-6029
▁밥머	-6030
▁밥을	-6031
▁방구	-6032
▁방법	-6033
▁방학	-6034
▁배려	-6035
▁백수	-6036
▁밴드	-6037
▁벗고	-6038
▁변명	-6039
▁병신	-6040
▁보는	-6041
▁보다	-6042
▁보이	-6043
▁볼까	-6044
▁봐두	-6045
▁봐라	-6046
▁부딪	-6047
▁부서	-6048
▁부탁	-6049
▁불나	-6050
▁붙여	-6051
▁블랙	-6052
▁비냉	-6053
▁비도	-6054
▁비싸	-6055
▁비와	-6056
▁빠른	-6057
▁빨간	-6058
▁빵은	-6059
▁빼면	-6060
▁사는	-6061
▁사떠	-6062
▁사망	-6063
▁사미	-6064
▁사악	-6065
▁사옴	-6066
▁사주	-6067
▁사탕	-6068
▁살아	-6069
▁삼십	-6070
▁상의	-6071
▁생겼	-6072
▁생신	-6073
▁생파	-6074
▁성수	-6075
▁세번	-6076
▁세수	-6077
▁속은	-6078
▁손석	-6079
▁수긍	-6080
▁수박	-6081
▁수영	-6082
▁순찌	-6083
▁쉑쉑	-6084
▁슈슈	-6085
▁스바	-6086
▁스토	-6087
▁신당	-6088
▁싫고	-6089
▁싯팔	-6090
▁싶고	-6091
▁싶은	-6092
▁싶지	-6093
▁써브	-6094
▁쏘링	-6095
▁쓸게	-6096
▁씻기	-6097
▁아구	-6098
▁아깝	-6099
▁아팠	-6100
▁아푸	-6101
▁아플	-6102
▁안감	-6103
▁안끄	-6104
▁안녕	-6105
▁안됨	-6106
▁안듣	-6107
▁안떠	-6108
▁안맞	-6109
▁안바	-6110
▁안비	-6111
▁안심	-6112
▁안쓰	-6113
▁안약	-6114
▁안열	-6115
▁안챙	-6116
▁안추	-6117
▁안춥	-6118
▁안취	-6119
▁안혼	-6120
▁알쥐	-6121
▁애긔	-6122
▁약간	-6123
▁약도	-6124
▁얌얌	-6125
▁양식	-6126
▁얘네	-6127
▁어떨	-6128
▁어어	-6129
▁어지	-6130
▁어쩜	-6131
▁얼렁	-6132
▁에공	-6133
▁에그	-6134
▁여행	-6135
▁역할	-6136
▁연장	-6137
▁열받	-6138
▁영상	-6139
▁영업	-6140
▁예매	-6141
▁오덕	-6142
▁오라	-6143
▁오셨	-6144
▁오타	-6145
▁올거	-6146
▁옮겨	-6147
▁옴총	-6148
▁와야	-6149
▁와웅	-6150
▁와이	-6151
▁와인	-6152
▁와쪄	-6153
▁완벽	-6154
▁완젼	-6155
▁왔음	-6156
▁우는	-6157
▁우렁	-6158
▁우린	-6159
▁우쒸	-6160
▁우짬	-6161
▁웃음	-6162
▁위해	-6163
▁윙크	-6164
▁으으	-6165
▁으휴	-6166
▁은근	-6167
▁음미	-6168
▁의미	-6169
▁의사	-6170
▁이고	-6171
▁이구	-6172
▁이눔	-6173
▁이럼	-6174
▁이리	-6175
▁이불	-6176
▁이쁘	-6177
▁이썽	-6178
▁이악	-6179
▁인데	-6180
▁인상	-6181
▁인생	-6182
▁인정	-6183
▁일곱	-6184
▁일에	-6185
▁입어	-6186
▁잇츠	-6187
▁있구	-6188
▁있대	-6189
▁있지	-6190
▁자금	-6191
▁자냐	-6192
▁자서	-6193
▁자식	-6194
▁자알	-6195
▁자야	-6196
▁잔치	-6197
▁잘가	-6198
▁잘게	-6199
▁잘까	-6200
▁잘모	-6201
▁잘잤	-6202
▁잤지	-6203
▁저게	-6204
▁저때	-6205
▁저심	-6206
▁전나	-6207
▁전부	-6208
▁정답	-6209
▁정시	-6210
▁정해	-6211
▁제노	-6212
▁제품	-6213
▁조난	-6214
▁조또	-6215
▁조립	-6216
▁좆빡	-6217
▁좋겠	-6218
▁좋고	-6219
▁좋치	-6220
▁죄다	-6221
▁주면	-6222
▁주애	-6223
▁죽이	-6224
▁즐겨	-6225
▁지끈	-6226
▁지루	-6227
▁지리	-6228
▁지워	-6229
▁지점	-6230
▁직장	-6231
▁집앞	-6232
▁짜장	-6233
▁짱깨	-6234
▁쪽쪽	-6235
▁찌질	-6236
▁찍고	-6237
▁착한	-6238
▁창고	-6239
▁책상	-6240
▁처리	-6241
▁초대	-6242
▁최선	-6243
▁치고	-6244
▁캬캬	-6245
▁컴터	-6246
▁코골	-6247
▁콤콤	-6248
▁쿰척	-6249
▁크게	-6250
▁큼큼	-6251
▁타로	-6252
▁타요	-6253
▁테이	-6254
▁토닥	-6255
▁퇴사	-6256
▁투정	-6257
▁파산	-6258
▁팥빵	-6259
▁편한	-6260
▁평생	-6261
▁푸파	-6262
▁풉키	-6263
▁퓨퓨	-6264
▁피구	-6265
▁피씨	-6266
▁픽업	-6267
▁필수	-6268
▁하네	-6269
▁하다	-6270
▁한글	-6271
▁한두	-6272
▁한입	-6273
▁한참	-6274
▁합격	-6275
▁해동	-6276
▁해써	-6277
▁해줌	-6278
▁했고	-6279
▁했던	-6280
▁향수	-6281
▁허리	-6282
▁허허	-6283
▁헬스	-6284
▁헷갈	-6285
▁현대	-6286
▁호출	-6287
▁호호	-6288
▁혹헉	-6289
▁혼났	-6290
▁환영	-6291
▁회색	-6292
▁회식	-6293
▁후드	-6294
▁휴게	-6295
▁휴우	-6296
▁흔적	-6297
▁희망	-6298
▁희미	-6299
▁희희	-6300
▁흰색	-6301
▁히힣	-6302
가랴구	-6303
가야징	-6304
갈거양	-6305
갈준비	-6306
같은데	-6307
게먹어	-6308
겠는데	-6309
고있대	-6310
고있음	-6311
괜찮아	-6312
구와구	-6313
기다려	-6314
기장판	-6315
긴하네	-6316
꺼같아	-6317
나가용	-6318
는구나	-6319
늕ᄑᄋ	-6320
대로해	-6321
도돼요	-6322
도없고	-6323
도카레	-6324
됐는데	-6325
두돼요	-6326
드간다	-6327
라그래	-6328
라는겨	-6329
랬는데	-6330
러가용	-6331
러야지	-6332
루해써	-6333
리카노	-6334
리콥터	-6335
릴게요	-6336
만원이	-6337
만하면	-6338
매해서	-6339
베이글	-6340
보는데	-6341
보라고	-6342
볶음밥	-6343
볼까낭	-6344
부터는	-6345
분뒤면	-6346
분으로	-6347
분쯤용	-6348
생각해	-6349
셨으면	-6350
수있지	-6351
시간만	-6352
시까진	-6353
시정도	-6354
아니지	-6355
아닌데	-6356
아라써	-6357
아파서	-6358
아파트	-6359
안하고	-6360
안하구	-6361
았다리	-6362
야겠넹	-6363
어ᅡ서	-6364
었나봐	-6365
였구나	-6366
오도록	-6367
오라고	-6368
올거야	-6369
옵니다	-6370
왔는디	-6371
우ᅢ이	-6372
우ᅩᄂ	-6373
우려고	-6374
유ᅥᄂ	-6375
으시대	-6376
은거지	-6377
을거래	-6378
을거임	-6379
을때만	-6380
이네요	-6381
이네유	-6382
이라구	-6383
이라니	-6384
이랄까	-6385
이에유	-6386
일거야	-6387
일동안	-6388
일어났	-6389
입니닷	-6390
있나봐	-6391
있는거	-6392
있다고	-6393
있을래	-6394
졌어요	-6395
주다가	-6396
주신대	-6397
준거야	-6398
중인데	-6399
찡찡거	-6400
쳤으면	-6401
친거야	-6402
테이크	-6403
하기로	-6404
하길래	-6405
하는디	-6406
하는지	-6407
하니께	-6408
하라구	-6409
하시나	-6410
하지말	-6411
한거는	-6412
한거임	-6413
한거지	-6414
한건데	-6415
한테도	-6416
할만큼	-6417
할만한	-6418
합니당	-6419
해도돼	-6420
해주고	-6421
해주께	-6422
했거든	-6423
했는대	-6424
했다고	-6425
했더니	-6426
화장실	-6427
힘들어	-6428
=114	-6429
ARCH	-6430
list	-6431
▁Yes	-6432
▁asp	-6433
▁spc	-6434
▁~~~	-6435
▁ᄀᄋᄃ	-6436
▁ᄋᄋᄏ	-6437
▁ᄌ될뻔	-6438
▁ᄏᄏ개	-6439
▁ᄏᄏ왜	-6440
▁ᄏᄏ웅	-6441
▁ᄒᄉᄒ	-6442
▁가까이	-6443
▁가는거	-6444
▁가는데	-6445
▁가야징	-6446
▁가야함	-6447
▁간다구	-6448
▁간다는	-6449
▁간단히	-6450
▁갈까요	-6451
▁같다고	-6452
▁개까먹	-6453
▁개맛있	-6454
▁걔네랑	-6455
▁거기도	-6456
▁건대로	-6457
▁건조기	-6458
▁걸리면	-6459
▁걸어가	-6460
▁겨수님	-6461
▁결과물	-6462
▁계예란	-6463
▁고려대	-6464
▁고속터	-6465
▁곧이다	-6466
▁공부는	-6467
▁공뷰중	-6468
▁공주님	-6469
▁괜차나	-6470
▁괜찮네	-6471
▁괴롭힐	-6472
▁괴물쿤	-6473
▁교슈님	-6474
▁귀여어	-6475
▁귀엽긴	-6476
▁그것만	-6477
▁그놈의	-6478
▁그동안	-6479
▁그랬나	-6480
▁그런게	-6481
▁그런데	-6482
▁그런말	-6483
▁그렇지	-6484
▁금토일	-6485
▁기사님	-6486
▁기억나	-6487
▁기억은	-6488
▁까먹고	-6489
▁깼는데	-6490
▁껴쥬ᅥ	-6491
▁끊었어	-6492
▁끝나는	-6493
▁끝나쪄	-6494
▁끝났으	-6495
▁끝내서	-6496
▁끝낼게	-6497
▁나가게	-6498
▁나간당	-6499
▁나갔어	-6500
▁나돈데	-6501
▁나땜에	-6502
▁나랑은	-6503
▁나보다	-6504
▁나쁘지	-6505
▁나오네	-6506
▁나오넹	-6507
▁나오는	-6508
▁나와요	-6509
▁나왔네	-6510
▁나이스	-6511
▁남는거	-6512
▁남자애	-6513
▁내가더	-6514
▁내꺼는	-6515
▁내렸어	-6516
▁내말이	-6517
▁내일도	-6518
▁낼하자	-6519
▁너네집	-6520
▁넣어놔	-6521
▁네임택	-6522
▁노노노	-6523
▁노려크	-6524
▁놀다와	-6525
▁놀아서	-6526
▁눈치가	-6527
▁늦어도	-6528
▁늦었어	-6529
▁늦을거	-6530
▁다같이	-6531
▁다왔어	-6532
▁다음엔	-6533
▁다음역	-6534
▁다음주	-6535
▁다했어	-6536
▁달아줬	-6537
▁담배나	-6538
▁담배는	-6539
▁담배를	-6540
▁담에는	-6541
▁담주는	-6542
▁담한피	-6543
▁답장안	-6544
▁대답을	-6545
▁대답해	-6546
▁대머리	-6547
▁대청소	-6548
▁도착은	-6549
▁도착함	-6550
▁돌리고	-6551
▁동기가	-6552
▁동기랑	-6553
▁됐어요	-6554
▁되는데	-6555
▁두개다	-6556
▁두시반	-6557
▁둘이서	-6558
▁드렸어	-6559
▁듣고있	-6560
▁들어옴	-6561
▁들어용	-6562
▁들었어	-6563
▁디질래	-6564
▁따라란	-6565
▁떠져서	-6566
▁뚱땡이	-6567
▁라인업	-6568
▁롱패딩	-6569
▁마감조	-6570
▁마려워	-6571
▁마마집	-6572
▁마마짱	-6573
▁마이무	-6574
▁마쟈용	-6575
▁만나자	-6576
▁말씀드	-6577
▁말하셈	-6578
▁말한거	-6579
▁말해서	-6580
▁말해야	-6581
▁말해죠	-6582
▁맛나보	-6583
▁맛있지	-6584
▁망가지	-6585
▁맞아요	-6586
▁맞아용	-6587
▁머리는	-6588
▁머먹게	-6589
▁머먹을	-6590
▁머하냐	-6591
▁먹구가	-6592
▁먹구와	-6593
▁먹어봐	-6594
▁먹었니	-6595
▁먹을걸	-6596
▁먹을지	-6597
▁먼저가	-6598
▁메뉴는	-6599
▁메모장	-6600
▁몇분쯤	-6601
▁몇시야	-6602
▁몇시쯤	-6603
▁모기가	-6604
▁모르는	-6605
▁목을래	-6606
▁몰랐어	-6607
▁못보내	-6608
▁무사히	-6609
▁뭐라도	-6610
▁뭐하구	-6611
▁뭐하노	-6612
▁뭐하자	-6613
▁뭐해요	-6614
▁뭐했어	-6615
▁뭔소리	-6616
▁미용실	-6617
▁바닥에	-6618
▁바쁜가	-6619
▁반까지	-6620
▁받아줘	-6621
▁받으러	-6622
▁배고푸	-6623
▁배불렁	-6624
▁백만번	-6625
▁베이지	-6626
▁보기싫	-6627
▁보내요	-6628
▁보내죠	-6629
▁보내줘	-6630
▁보는거	-6631
▁보여서	-6632
▁보여주	-6633
▁보일러	-6634
▁보호자	-6635
▁본다고	-6636
▁불렀어	-6637
▁불태워	-6638
▁비마트	-6639
▁비안와	-6640
▁비온다	-6641
▁비와서	-6642
▁뿌링클	-6643
▁사과해	-6644
▁삼각김	-6645
▁삼겹살	-6646
▁상황이	-6647
▁생각만	-6648
▁생겨서	-6649
▁석계초	-6650
▁석관고	-6651
▁선생님	-6652
▁설거지	-6653
▁속상했	-6654
▁숟가락	-6655
▁술먹고	-6656
▁쉬어도	-6657
▁쉬어서	-6658
▁쉴게요	-6659
▁쉴예정	-6660
▁시간표	-6661
▁시끄러	-6662
▁시년지	-6663
▁시켜용	-6664
▁시키자	-6665
▁시킬게	-6666
▁시킬겡	-6667
▁식당이	-6668
▁신현지	-6669
▁싫다고	-6670
▁싫은데	-6671
▁심하게	-6672
▁싸우고	-6673
▁썹웨이	-6674
▁쓰러질	-6675
▁씨익씨	-6676
▁씻고올	-6677
▁씻고있	-6678
▁아까는	-6679
▁아니믄	-6680
▁아니였	-6681
▁아닌가	-6682
▁아닌디	-6683
▁아라찌	-6684
▁아빠가	-6685
▁아쉬워	-6686
▁아쉽네	-6687
▁아쉽다	-6688
▁아이키	-6689
▁아조씨	-6690
▁아픈거	-6691
▁아픈건	-6692
▁안가도	-6693
▁안가지	-6694
▁안갈게	-6695
▁안겨서	-6696
▁안그래	-6697
▁안끝났	-6698
▁안나가	-6699
▁안돼요	-6700
▁안되면	-6701
▁안되지	-6702
▁안된다	-6703
▁안된대	-6704
▁안먹을	-6705
▁안싫어	-6706
▁안아죠	-6707
▁안아줘	-6708
▁안아파	-6709
▁안아프	-6710
▁안하면	-6711
▁안할게	-6712
▁알았대	-6713
▁알았슈	-6714
▁알지만	-6715
▁앙버터	-6716
▁앞에서	-6717
▁애교부	-6718
▁애기여	-6719
▁얘기도	-6720
▁얘기하	-6721
▁어딨어	-6722
▁어땠어	-6723
▁어떠노	-6724
▁어떡해	-6725
▁어려운	-6726
▁어르신	-6727
▁어쨌든	-6728
▁어케이	-6729
▁엄마도	-6730
▁엄청난	-6731
▁없다고	-6732
▁없어도	-6733
▁엎드려	-6734
▁에바임	-6735
▁여기도	-6736
▁여자랑	-6737
▁예쁘지	-6738
▁오늘만	-6739
▁오니까	-6740
▁오랜만	-6741
▁오마갓	-6742
▁오만원	-6743
▁오이야	-6744
▁오천원	-6745
▁오트밀	-6746
▁오픈이	-6747
▁오히려	-6748
▁왔으요	-6749
▁왕십리	-6750
▁왜웃어	-6751
▁왜저러	-6752
▁외계인	-6753
▁외대앞	-6754
▁요거트	-6755
▁용후랑	-6756
▁우동집	-6757
▁우리가	-6758
▁우산은	-6759
▁원주니	-6760
▁월화수	-6761
▁응자기	-6762
▁이거지	-6763
▁이것도	-6764
▁이디야	-6765
▁이런건	-6766
▁이름이	-6767
▁이쁜아	-6768
▁이상한	-6769
▁이상해	-6770
▁이유가	-6771
▁이정민	-6772
▁이제나	-6773
▁인나서	-6774
▁인누왕	-6775
▁일하러	-6776
▁일하지	-6777
▁있는게	-6778
▁있는곳	-6779
▁있는디	-6780
▁있는지	-6781
▁있던데	-6782
▁있어야	-6783
▁있어유	-6784
▁있을거	-6785
▁자ᅵᄀ	-6786
▁자길래	-6787
▁자래또	-6788
▁자래쏘	-6789
▁자리도	-6790
▁잘거야	-6791
▁잘게요	-6792
▁잘먹었	-6793
▁잘자유	-6794
▁잘하자	-6795
▁잘해쏘	-6796
▁잘했니	-6797
▁잘했따	-6798
▁잘했슈	-6799
▁잠들어	-6800
▁잠만보	-6801
▁장보고	-6802
▁저나하	-6803
▁저두요	-6804
▁저러는	-6805
▁전까지	-6806
▁전화를	-6807
▁전화못	-6808
▁점장쓰	-6809
▁정말로	-6810
▁조아해	-6811
▁존맛임	-6812
▁좀만더	-6813
▁죽을래	-6814
▁준비끝	-6815
▁준서도	-6816
▁준형이	-6817
▁지났어	-6818
▁지내면	-6819
▁지상렬	-6820
▁지현이	-6821
▁집가구	-6822
▁집가면	-6823
▁집가용	-6824
▁집이다	-6825
▁집이당	-6826
▁짜글이	-6827
▁차리고	-6828
▁챙겨입	-6829
▁천사야	-6830
▁철수씨	-6831
▁청바지	-6832
▁최고다	-6833
▁추운데	-6834
▁출근중	-6835
▁출근하	-6836
▁출발함	-6837
▁치우고	-6838
▁친구가	-6839
▁카페도	-6840
▁칼국수	-6841
▁커피사	-6842
▁케이티	-6843
▁큰실장	-6844
▁큰일날	-6845
▁톡할게	-6846
▁통신사	-6847
▁퇴근할	-6848
▁투다리	-6849
▁펴야지	-6850
▁포장해	-6851
▁풀렸어	-6852
▁플레인	-6853
▁피곤할	-6854
▁피방가	-6855
▁하구싶	-6856
▁하루에	-6857
▁하면서	-6858
▁하숙비	-6859
▁하얀색	-6860
▁하지말	-6861
▁한다고	-6862
▁한만큼	-6863
▁한숨자	-6864
▁할무니	-6865
▁합니다	-6866
▁했는디	-6867
▁헤어지	-6868
▁현지야	-6869
▁형들이	-6870
▁혼난다	-6871
▁확실히	-6872
▁흑임자	-6873
▁힘들었	-6874
▁힘들오	-6875
갈게요오	-6876
갑니다요	-6877
갑니다잉	-6878
거같아용	-6879
거같은디	-6880
겠다ᅲᅲ	-6881
겠습니당	-6882
고싶다고	-6883
고있다가	-6884
고있었오	-6885
고있었음	-6886
는거아니	-6887
는데ᅲᅲ	-6888
다구해서	-6889
들어가요	-6890
러가는즁	-6891
러가야지	-6892
릴거같아	-6893
메리카노	-6894
번출구로	-6895
수있겠다	-6896
수있는데	-6897
시간이면	-6898
었나보네	-6899
을거에요	-6900
이야ᅲᅲ	-6901
이였는데	-6902
일어나서	-6903
정거장에	-6904
지않을까	-6905
하고이써	-6906
하고있오	-6907
하긴한데	-6908
하는거임	-6909
하는구나	-6910
하러가요	-6911
하시겠다	-6912
하자마자	-6913
해가지공	-6914
naver	-6915
▁2304	-6916
▁5000	-6917
▁Just	-6918
▁adid	-6919
▁alba	-6920
▁ᄀᄃᄀᄃ	-6921
▁ᄏᄏᄏ어	-6922
▁ᄏᄏᄐᄐ	-6923
▁ᄏᄏ진짜	-6924
▁가고있지	-6925
▁가구이써	-6926
▁가는길에	-6927
▁가볼게용	-6928
▁가져갈까	-6929
▁갈거에요	-6930
▁갈때까지	-6931
▁갑니다요	-6932
▁갔다오께	-6933
▁강의실에	-6934
▁같이가요	-6935
▁개열받어	-6936
▁거마워용	-6937
▁거생했어	-6938
▁걱정안해	-6939
▁고래고래	-6940
▁고럼고럼	-6941
▁공부하면	-6942
▁공부할거	-6943
▁공부할까	-6944
▁공부할때	-6945
▁교수님이	-6946
▁귀염둥이	-6947
▁그냥저냥	-6948
▁그대로야	-6949
▁그때까지	-6950
▁그래유우	-6951
▁그러던가	-6952
▁그렇구만	-6953
▁그정도는	-6954
▁금방간다	-6955
▁기다려용	-6956
▁기다리고	-6957
▁기다리셈	-6958
▁기다릴까	-6959
▁기분좋아	-6960
▁김밥이랑	-6961
▁까먹으면	-6962
▁끝나는거	-6963
▁끝나자나	-6964
▁끝날때쯤	-6965
▁나가는중	-6966
▁나갈게용	-6967
▁나갑니당	-6968
▁나같으면	-6969
▁남았다리	-6970
▁내려와서	-6971
▁너하는거	-6972
▁넉넉하게	-6973
▁넣어놓고	-6974
▁놀고있어	-6975
▁누리끼리	-6976
▁누워이썽	-6977
▁다먹었어	-6978
▁다먹으면	-6979
▁다행이지	-6980
▁닭도리탕	-6981
▁닭칼국수	-6982
▁담배같이	-6983
▁담배마려	-6984
▁담배피거	-6985
▁담배필때	-6986
▁답장한줄	-6987
▁당연하게	-6988
▁더착해서	-6989
▁델리만쥬	-6990
▁도착인데	-6991
▁도착해쓰	-6992
▁도착했으	-6993
▁돌곶이야	-6994
▁동민이는	-6995
▁돼지야ᅲ	-6996
▁듣고와요	-6997
▁들어가게	-6998
▁들어가기	-6999
▁들어갈때	-7000
▁레츠기릿	-7001
▁마려운데	-7002
▁마중갈게	-7003
▁만나면서	-7004
▁많이먹어	-7005
▁말하려고	-7006
▁말한거야	-7007
▁말해볼게	-7008
▁말해주께	-7009
▁말해줘요	-7010
▁맛있는고	-7011
▁맞다맞다	-7012
▁머가웃겨	-7013
▁머그려구	-7014
▁먹고시퍼	-7015
▁먹고싶음	-7016
▁먹구싶다	-7017
▁먹구있어	-7018
▁먹는거야	-7019
▁먹어두돼	-7020
▁먹어볼게	-7021
▁먹으러가	-7022
▁먹으려고	-7023
▁먹을게요	-7024
▁먹을게용	-7025
▁먹을꺼야	-7026
▁먹지말구	-7027
▁먼저가서	-7028
▁몇시쯤에	-7029
▁모르니까	-7030
▁못들었어	-7031
▁못봤어요	-7032
▁무료취소	-7033
▁물어봐써	-7034
▁물어봤어	-7035
▁뭐먹어써	-7036
▁뭐먹어요	-7037
▁뭐먹을거	-7038
▁뭐입었어	-7039
▁뭐하는데	-7040
▁뭐할꺼야	-7041
▁미안한데	-7042
▁미쳤다리	-7043
▁미친듯이	-7044
▁민정매님	-7045
▁민정맴님	-7046
▁바질하나	-7047
▁받아야지	-7048
▁발표준비	-7049
▁밥먹는중	-7050
▁배고프네	-7051
▁배고프지	-7052
▁보고시퓨	-7053
▁보고싶소	-7054
▁보쌈정식	-7055
▁보험회사	-7056
▁불만있니	-7057
▁비슷하게	-7058
▁빨래하러	-7059
▁뼈해장국	-7060
▁사가지고	-7061
▁사랑해유	-7062
▁생각나면	-7063
▁생각보다	-7064
▁생드위치	-7065
▁성현이랑	-7066
▁소개시켜	-7067
▁소중하게	-7068
▁속상하고	-7069
▁속상하네	-7070
▁속상했어	-7071
▁수업인가	-7072
▁수업인데	-7073
▁수요일은	-7074
▁쉬어도돼	-7075
▁시켜줄까	-7076
▁신경쓰고	-7077
▁신기하지	-7078
▁쓰레기도	-7079
▁씻으려고	-7080
▁씻을게요	-7081
▁아니어서	-7082
▁아니여서	-7083
▁아무말도	-7084
▁아프니까	-7085
▁안가져갔	-7086
▁안가지고	-7087
▁안끝났어	-7088
▁안남았어	-7089
▁안된다구	-7090
▁안아주고	-7091
▁안아줄게	-7092
▁안좋아서	-7093
▁애기ᅲᅲ	-7094
▁애기같이	-7095
▁애기니까	-7096
▁애매해서	-7097
▁약수에용	-7098
▁어머니집	-7099
▁어색어색	-7100
▁어이없네	-7101
▁어이없넹	-7102
▁어이없어	-7103
▁얼굴보고	-7104
▁얼른가서	-7105
▁엄청빨리	-7106
▁없다하면	-7107
▁없으니까	-7108
▁에어컨도	-7109
▁엘가에서	-7110
▁여기와서	-7111
▁연락하구	-7112
▁연락한거	-7113
▁열차타서	-7114
▁열차탔어	-7115
▁오구오구	-7116
▁오래걸려	-7117
▁오래하넹	-7118
▁오케바리	-7119
▁올라가서	-7120
▁옷갈아입	-7121
▁와구와구	-7122
▁우리학교	-7123
▁우산있어	-7124
▁우산챙겨	-7125
▁웃고있어	-7126
▁원준이가	-7127
▁유튜브로	-7128
▁이리저리	-7129
▁이번에는	-7130
▁이시간에	-7131
▁이악물고	-7132
▁인도카레	-7133
▁인사하고	-7134
▁일끝나구	-7135
▁일어나슈	-7136
▁일어났니	-7137
▁일어났슈	-7138
▁일어났지	-7139
▁일이니까	-7140
▁일찍가네	-7141
▁일하고있	-7142
▁일하는중	-7143
▁일하는즁	-7144
▁일하다가	-7145
▁있는거야	-7146
▁자기보고	-7147
▁자러가유	-7148
▁자러간다	-7149
▁잔치국수	-7150
▁잘못했어	-7151
▁잘하구있	-7152
▁잘할거야	-7153
▁장유ᅥᄂ	-7154
▁재밌게놀	-7155
▁전기장판	-7156
▁전혀몰랐	-7157
▁전화가능	-7158
▁전화끊고	-7159
▁전화통화	-7160
▁전화해서	-7161
▁전화했어	-7162
▁제육볶음	-7163
▁조심조심	-7164
▁조심할게	-7165
▁조심해요	-7166
▁죽여버려	-7167
▁준비해용	-7168
▁지금까지	-7169
▁지하철에	-7170
▁진지하게	-7171
▁집가는즁	-7172
▁집가면서	-7173
▁집갔다가	-7174
▁집에가서	-7175
▁집에있어	-7176
▁짜증나게	-7177
▁짜증내서	-7178
▁챙겨가요	-7179
▁챙겼는데	-7180
▁초코머핀	-7181
▁추우니까	-7182
▁출근하면	-7183
▁출근할때	-7184
▁출발이용	-7185
▁출발하게	-7186
▁카드게임	-7187
▁카페가서	-7188
▁쿰척쿰척	-7189
▁패고싶네	-7190
▁포장해서	-7191
▁피곤하지	-7192
▁피곤해서	-7193
▁필요없지	-7194
▁한가해서	-7195
▁한시간도	-7196
▁한시반에	-7197
▁한정거장	-7198
▁해달라고	-7199
▁헬리콥터	-7200
▁혹시라도	-7201
▁혼자있어	-7202
▁화장실로	-7203
▁회기에서	-7204
▁흠냐흠냐	-7205
▁힘드니까	-7206
도착했어용	-7207
하고있어용	-7208
하고있었어	-7209
하는거아님	-7210
할수있으면	-7211
해야되는데	-7212
Detail	-7213
SEARCH	-7214
menucd	-7215
▁ᄏᄏᄏᄉᄇ	-7216
▁ᄏᄏ잘했어	-7217
▁가고싶어서	-7218
▁가고싶어요	-7219
▁가고싶은데	-7220
▁가야하는데	-7221
▁거기로갈게	-7222
▁걸어가는중	-7223
▁겅부하다가	-7224
▁고생이니까	-7225
▁고속터미널	-7226
▁공부하려고	-7227
▁공부해야지	-7228
▁기다리는거	-7229
▁내려가는중	-7230
▁노래방가자	-7231
▁눈치보여서	-7232
▁다녀오구라	-7233
▁다녀오께요	-7234
▁다녀오도록	-7235
▁다녀올게용	-7236
▁다치지말구	-7237
▁다행이어유	-7238
▁더착했어요	-7239
▁데려다주고	-7240
▁도착해써용	-7241
▁돌곶이에서	-7242
▁두시간이나	-7243
▁들어가는데	-7244
▁들어가려고	-7245
▁들어가요오	-7246
▁따릉이타구	-7247
▁말하는거야	-7248
▁먹고싶은고	-7249
▁먹고있어요	-7250
▁먹어야겠다	-7251
▁먹을거에요	-7252
▁미친놈인가	-7253
▁미팅끝나구	-7254
▁바쁜가보네	-7255
▁밥먹으려구	-7256
▁배고프니까	-7257
▁보고싶은데	-7258
▁사랑합니다	-7259
▁상월곡이야	-7260
▁생각하니까	-7261
▁생각하면서	-7262
▁생각해볼게	-7263
▁수업끝나구	-7264
▁쉅들어간다	-7265
▁쉬러가셨어	-7266
▁씻고나왔어	-7267
▁알겠습니다	-7268
▁애기ᅲᅲᅲ	-7269
▁얘기해줄게	-7270
▁어디쯤인데	-7271
▁어무니한테	-7272
▁얼마든지요	-7273
▁엄마집가서	-7274
▁연규실에서	-7275
▁연락할게용	-7276
▁연락할게유	-7277
▁오픈이니까	-7278
▁올라가는중	-7279
▁일어났엉ᄉ	-7280
▁잘하구있어	-7281
▁전화주세용	-7282
▁지하철이야	-7283
▁지하철타요	-7284
▁집가고시퍼	-7285
▁집가고싶어	-7286
▁집가고있어	-7287
▁집도착해서	-7288
▁집에있다가	-7289
▁짜증나는데	-7290
▁출발하려구	-7291
▁출발할게용	-7292
▁출발했어요	-7293
▁코노갔다가	-7294
▁통화중이네	-7295
▁통화중이야	-7296
▁퇴근했어요	-7297
▁학교앞에서	-7298
▁한시간동안	-7299
▁현대아파트	-7300
▁화이팅하구	-7301
▁화이팅해요	-7302
▁홧팅입니다	-7303
▁ᄏᄏᄏᄏᄉᄇ	-7304
▁가보자가보자	-7305
▁걱정하지말고	-7306
▁걱정하지말구	-7307
▁공부하러가요	-7308
▁기다리구있어	-7309
▁노래방갔다가	-7310
▁다음정거장에	-7311
▁담배피러가용	-7312
▁담배피러갈때	-7313
▁데려다줄거야	-7314
▁돌아다니다가	-7315
▁들어갑니다잉	-7316
▁마라탕먹을래	-7317
▁뭐하고있어요	-7318
▁미친거아니야	-7319
▁밥먹으러간다	-7320
▁밥먹으러왔어	-7321
▁부대찌개랄까	-7322
▁수업끝났어요	-7323
▁수업들어가요	-7324
▁쉬고있을게용	-7325
▁쉬는시간이당	-7326
▁자고있나보네	-7327
▁자기ᅲᅲᅲᅲ	-7328
▁장원이집에서	-7329
▁전화해봤는데	-7330
▁준비해야겠네	-7331
▁출발하려구요	-7332
▁태릉입구에서	-7333
▁한시간남아따	-7334
~~~~~~~~	-7335
▁공부시작합니다	-7336
▁공부하고있을게	-7337
▁기다리고있어요	-7338
▁다녀오겠습니다	-7339
▁응ᄏᄏᄏᄏᄏᄏ	-7340
▁학교도착했어용	-7341
ᄏᄏᄏᄏᄏᄏᄏᄏᄏ	-7342
listmenucd	-7343
ᄏᄏᄏᄏᄏᄏᄏᄏᄏᄏ	-7344
ᄏᄏᄏᄏᄏᄏᄏᄏᄏᄏᄏᄏᄏᄏᄏᄏ	-7345
)♡	-7346
23	-7347
28	-7348
67	-7349
78	-7350
gu	-7351
in	-7352
vs	-7353
~\	-7354
~°	-7355
ᄀᄒ	-7356
ᄅ어	-7357
ᄉᄋ	-7358
ᄉ슈	-7359
ᄌᄀ	-7360
ᅡᅡ	-7361
ᅭᅦ	-7362
▁D	-7363
▁O	-7364
▁T	-7365
▁ᅢ	-7366
▁❌	-7367
▁갤	-7368
▁겹	-7369
▁곰	-7370
▁꽂	-7371
▁꽃	-7372
▁꿔	-7373
▁낀	-7374
▁냅	-7375
▁넓	-7376
▁녱	-7377
▁높	-7378
▁늘	-7379
▁능	-7380
▁뜨	-7381
▁띵	-7382
▁멈	-7383
▁뮝	-7384
▁벽	-7385
▁봉	-7386
▁브	-7387
▁뻔	-7388
▁뽑	-7389
▁샜	-7390
▁싄	-7391
▁쏙	-7392
▁욘	-7393
▁째	-7394
▁찔	-7395
▁홧	-7396
▁훌	-7397
▁힛	-7398
▁😞	-7399
04	-7400
87	-7401
ᄇᄋ	-7402
ᄋᄋ	-7403
ᄋ어	-7404
▁쿵	-7405
▁👌	-7406
가께	-7407
가니	-7408
가다	-7409
가래	-7410
가임	-7411
갈껄	-7412
같을	-7413
같지	-7414
거네	-7415
거다	-7416
거먹	-7417
건디	-7418
걸려	-7419
겄어	-7420
게만	-7421
게트	-7422
겠내	-7423
겠니	-7424
겠댜	-7425
계탕	-7426
고가	-7427
고갔	-7428
곳이	-7429
공기	-7430
구리	-7431
궈궈	-7432
규야	-7433
그롬	-7434
그리	-7435
극적	-7436
근데	-7437
긍께	-7438
기기	-7439
긴햐	-7440
김치	-7441
꺼다	-7442
꽁꽁	-7443
꾸마	-7444
꾸야	-7445
끼따	-7446
나왓	-7447
났니	-7448
내가	-7449
내일	-7450
낸건	-7451
낼까	-7452
낼때	-7453
너봄	-7454
넘네	-7455
넣을	-7456
뇬이	-7457
눈뎅	-7458
눴어	-7459
니가	-7460
니꺼	-7461
니저	-7462
니폼	-7463
달에	-7464
당님	-7465
대체	-7466
대한	-7467
더러	-7468
더리	-7469
데려	-7470
도꾸	-7471
돈가	-7472
돈고	-7473
동민	-7474
돼요	-7475
되나	-7476
되지	-7477
두기	-7478
둣국	-7479
드셨	-7480
든다	-7481
든데	-7482
듣지	-7483
들부	-7484
떨어	-7485
라궁	-7486
라능	-7487
랑은	-7488
래ᅲ	-7489
랴서	-7490
러리	-7491
렁탕	-7492
로감	-7493
루스	-7494
르고	-7495
르지	-7496
리트	-7497
린가	-7498
릴거	-7499
94	-7500
▁갇	-7501
▁꼰	-7502
▁꽉	-7503
▁맹	-7504
▁뿅	-7505
▁쟉	-7506
감이	-7507
겠따	-7508
곱창	-7509
굥부	-7510
깊게	-7511
꿨네	-7512
늘빵	-7513
니깡	-7514
되서	-7515
래도	-7516
려따	-7517
렸대	-7518
림체	-7519
마가	-7520
마주	-7521
마한	-7522
만봐	-7523
만유	-7524
만이	-7525
말함	-7526
머겅	-7527
머야	-7528
먹게	-7529
명서	-7530
명은	-7531
목게	-7532
목구	-7533
못생	-7534
물너	-7535
뭐해	-7536
미야	-7537
미팅	-7538
밌게	-7539
바닥	-7540
바엔	-7541
박은	-7542
받이	-7543
배건	-7544
번호	-7545
베라	-7546
보가	-7547
보신	-7548
보야	-7549
복기	-7550
볼겡	-7551
부분	-7552
비스	-7553
비큐	-7554
빙기	-7555
빠닭	-7556
뻤어	-7557
뿐가	-7558
사다	-7559
사를	-7560
사회	-7561
살아	-7562
상훈	-7563
생활	-7564
샤끼	-7565
소식	-7566
수임	-7567
슈도	-7568
스터	-7569
슨데	-7570
슬쩍	-7571
시발	-7572
시용	-7573
시포	-7574
시험	-7575
식사	-7576
신고	-7577
신다	-7578
싶다	-7579
씻어	-7580
아이	-7581
안아	-7582
안키	-7583
았대	-7584
애도	-7585
애플	-7586
야개	-7587
야될	-7588
야디	-7589
어났	-7590
어디	-7591
어치	-7592
없음	-7593
었대	-7594
었엉	-7595
엉ᄑ	-7596
여보	-7597
여우	-7598
였지	-7599
ls	-7600
ᄃᄇ	-7601
ᅦ이	-7602
▁E	-7603
▁ᄄ	-7604
▁겟	-7605
▁깰	-7606
▁낑	-7607
▁낯	-7608
▁뻐	-7609
▁쌌	-7610
▁앜	-7611
가봐	-7612
곤데	-7613
그릇	-7614
근처	-7615
긴하	-7616
꾸나	-7617
대ᅲ	-7618
더착	-7619
동포	-7620
될때	-7621
들면	-7622
라서	-7623
마미	-7624
매장	-7625
보기	-7626
사줌	-7627
세코	-7628
슬프	-7629
시니	-7630
영화	-7631
오께	-7632
오셈	-7633
오신	-7634
오용	-7635
온나	-7636
왔니	-7637
왱ᄉ	-7638
욜로	-7639
우는	-7640
우리	-7641
우선	-7642
우실	-7643
움이	-7644
웃김	-7645
위보	-7646
위사	-7647
위에	-7648
으슬	-7649
으실	-7650
은겨	-7651
을을	-7652
응ᄑ	-7653
이ᅭ	-7654
이군	-7655
이노	-7656
이문	-7657
이바	-7658
이볼	-7659
이양	-7660
이어	-7661
이유	-7662
이틀	-7663
인드	-7664
인정	-7665
일은	-7666
일중	-7667
자ᅡ	-7668
자네	-7669
자로	-7670
전화	-7671
젊은	-7672
정돈	-7673
정리	-7674
조하	-7675
좋게	-7676
좋음	-7677
좌기	-7678
주껭	-7679
주행	-7680
죽어	-7681
죽여	-7682
준에	-7683
쥬께	-7684
쥰대	-7685
쥰비	-7686
즈앗	-7687
증나	-7688
지내	-7689
지랑	-7690
지런	-7691
지롱	-7692
질뻔	-7693
집에	-7694
쩔어	-7695
쭐내	-7696
찍구	-7697
채리	-7698
처넌	-7699
ᄋᄆ	-7700
ᅲᅮ	-7701
▁껌	-7702
▁뎜	-7703
▁딴	-7704
▁😎	-7705
검사	-7706
공부	-7707
그랬	-7708
기에	-7709
꺼는	-7710
나올	-7711
넘어	-7712
는날	-7713
달래	-7714
럴까	-7715
말투	-7716
반데	-7717
쉬워	-7718
시원	-7719
아무	-7720
야워	-7721
없을	-7722
옆에	-7723
우러	-7724
응응	-7725
이그	-7726
이메	-7727
일듯	-7728
있으	-7729
자료	-7730
지지	-7731
체놀	-7732
체리	-7733
축하	-7734
출앞	-7735
츠나	-7736
치게	-7737
친다	-7738
케쥴	-7739
켜서	-7740
코츠	-7741
타나	-7742
타임	-7743
탄다	-7744
탔오	-7745
탔음	-7746
태원	-7747
터져	-7748
털려	-7749
통비	-7750
트도	-7751
트랩	-7752
티만	-7753
픈디	-7754
플로	-7755
핀거	-7756
하너	-7757
하더	-7758
하도	-7759
하디	-7760
하렴	-7761
하묜	-7762
하신	-7763
하징	-7764
한듯	-7765
함을	-7766
해놔	-7767
해죽	-7768
해쥬	-7769
해지	-7770
해짐	-7771
했오	-7772
햐서	-7773
험생	-7774
혀서	-7775
확이	-7776
흄냐	-7777
흐규	-7778
힘내	-7779
314	-7780
922	-7781
;;;	-7782
ase	-7783
map	-7784
swl	-7785
uns	-7786
~~=	-7787
ᄃᄇᄃ	-7788
ᄏᄉᄏ	-7789
ᅡᅡᅡ	-7790
ᅮ전화	-7791
ᅵᄌᄀ	-7792
▁3~	-7793
▁60	-7794
▁63	-7795
▁70	-7796
▁7~	-7797
▁99	-7798
▁@@	-7799
15	-7800
hd	-7801
ᄀ요	-7802
ᄆ나	-7803
▁값	-7804
▁꽈	-7805
▁낙	-7806
▁떙	-7807
▁척	-7808
▁팍	-7809
▁혀	-7810
▁활	-7811
▁😢	-7812
간더	-7813
갔네	-7814
걸린	-7815
겠소	-7816
겠습	-7817
고지	-7818
꾸역	-7819
노박	-7820
느데	-7821
는길	-7822
담회	-7823
돌려	-7824
동구	-7825
돼서	-7826
됐네	-7827
렸네	-7828
르다	-7829
바탕	-7830
반사	-7831
받기	-7832
봐유	-7833
부짖	-7834
빠져	-7835
상태	-7836
승민	-7837
시푼	-7838
안옴	-7839
엄청	-7840
오늘	-7841
우게	-7842
운게	-7843
이입	-7844
이징	-7845
임마	-7846
작님	-7847
잔치	-7848
조졋	-7849
철판	-7850
치지	-7851
케미	-7852
타몽	-7853
탈때	-7854
하던	-7855
하장	-7856
한텐	-7857
한판	-7858
▁3-	-7859
▁Bh	-7860
▁Sk	-7861
▁Zz	-7862
▁da	-7863
▁ez	-7864
▁vs	-7865
▁ᄅᄌ	-7866
▁가관	-7867
▁가신	-7868
▁가심	-7869
▁각오	-7870
▁간거	-7871
▁간수	-7872
▁간직	-7873
▁갓생	-7874
▁갱장	-7875
▁걔는	-7876
▁건댜	-7877
▁건데	-7878
▁건물	-7879
▁걸렸	-7880
▁걸린	-7881
▁겁나	-7882
▁겜방	-7883
▁결론	-7884
▁결심	-7885
▁경사	-7886
▁경우	-7887
▁고단	-7888
▁고랭	-7889
▁고모	-7890
▁고소	-7891
▁고집	-7892
▁곰돌	-7893
▁곱창	-7894
▁과학	-7895
▁교회	-7896
▁굥부	-7897
▁국수	-7898
▁굴리	-7899
*)	-7900
▁;	-7901
▁끈	-7902
▁댜	-7903
▁빕	-7904
거워	-7905
겁니	-7906
겄다	-7907
고민	-7908
나하	-7909
년생	-7910
는걸	-7911
도넛	-7912
떨리	-7913
렀어	-7914
모습	-7915
방구	-7916
분전	-7917
분째	-7918
샀어	-7919
스키	-7920
슴돠	-7921
시야	-7922
어떰	-7923
어질	-7924
연락	-7925
와슈	-7926
이더	-7927
이없	-7928
있고	-7929
자래	-7930
잤네	-7931
정고	-7932
줘야	-7933
할대	-7934
호등	-7935
▁굴어	-7936
▁궈궈	-7937
▁규래	-7938
▁그걸	-7939
▁글로	-7940
▁금바	-7941
▁급한	-7942
▁기기	-7943
▁기름	-7944
▁기숙	-7945
▁기업	-7946
▁기운	-7947
▁긴데	-7948
▁깔려	-7949
▁깜딱	-7950
▁깨고	-7951
▁깨서	-7952
▁깨웠	-7953
▁꺄아	-7954
▁꼰질	-7955
▁꽁꽁	-7956
▁꽂아	-7957
▁꾸역	-7958
▁꿑날	-7959
▁끄고	-7960
▁끄읕	-7961
▁끊고	-7962
▁끊었	-7963
▁나대	-7964
▁나왓	-7965
▁날개	-7966
▁날듯	-7967
▁날아	-7968
▁날에	-7969
▁남들	-7970
▁났어	-7971
▁내눈	-7972
▁내손	-7973
▁내이	-7974
▁내장	-7975
▁낼름	-7976
▁낼은	-7977
▁냉찜	-7978
▁냐일	-7979
▁너희	-7980
▁넓어	-7981
▁네개	-7982
▁네히	-7983
▁녹화	-7984
▁놀려	-7985
▁놓치	-7986
▁눈감	-7987
▁눈뜨	-7988
▁눌러	-7989
▁뉴나	-7990
▁는너	-7991
▁니나	-7992
▁다컸	-7993
▁다함	-7994
▁다희	-7995
▁닦고	-7996
▁닦아	-7997
▁단추	-7998
▁달렸	-7999
ff	-8000
ᄀᄀ	-8001
▁H	-8002
▁링	-8003
▁뱅	-8004
▁잏	-8005
▁탓	-8006
▁턱	-8007
▁펼	-8008
▁💌	-8009
같대	-8010
거랏	-8011
건대	-8012
겠슈	-8013
고레	-8014
글거	-8015
급해	-8016
길바	-8017
너도	-8018
네네	-8019
대면	-8020
따따	-8021
라며	-8022
마요	-8023
만져	-8024
목자	-8025
벌어	-8026
벌해	-8027
베도	-8028
비니	-8029
시쉅	-8030
시언	-8031
어이	-8032
장이	-8033
존에	-8034
차려	-8035
찾아	-8036
척함	-8037
코스	-8038
탱이	-8039
플때	-8040
▁개나	-8041
▁개점	-8042
▁공연	-8043
▁과잠	-8044
▁당당	-8045
▁더러	-8046
▁더버	-8047
▁덕분	-8048
▁덜곶	-8049
▁동해	-8050
▁돼용	-8051
▁될듯	-8052
▁두줄	-8053
▁두판	-8054
▁둑흔	-8055
▁둘중	-8056
▁뒤질	-8057
▁드론	-8058
▁듣기	-8059
▁들기	-8060
▁등록	-8061
▁등산	-8062
▁디엠	-8063
▁디짐	-8064
▁따당	-8065
▁따악	-8066
▁따흑	-8067
▁딱대	-8068
▁때리	-8069
▁떠넘	-8070
▁떠드	-8071
▁떡볶	-8072
▁똥개	-8073
▁뚝섬	-8074
▁띠껍	-8075
▁라멘	-8076
▁레몬	-8077
▁로또	-8078
▁로맨	-8079
▁리뷰	-8080
▁링크	-8081
▁마실	-8082
▁많네	-8083
▁많다	-8084
▁많음	-8085
▁말걸	-8086
▁맘껏	-8087
▁맘편	-8088
▁매우	-8089
▁매운	-8090
▁머지	-8091
▁먹다	-8092
▁멋져	-8093
▁멋짐	-8094
▁멍들	-8095
▁멍이	-8096
▁면도	-8097
▁면목	-8098
▁명절	-8099
)(	-8100
>>	-8101
~3	-8102
▁섞	-8103
▁쐬	-8104
▁츄	-8105
▁핌	-8106
▁👶	-8107
▁🙌	-8108
▁🦵	-8109
간은	-8110
고옴	-8111
남겨	-8112
녜유	-8113
눈다	-8114
두근	-8115
라랏	-8116
릴게	-8117
마늘	-8118
마산	-8119
면조	-8120
번도	-8121
보장	-8122
사갈	-8123
센치	-8124
쉐프	-8125
시유	-8126
실거	-8127
오고	-8128
외감	-8129
인은	-8130
젠지	-8131
졌음	-8132
죙일	-8133
쪽에	-8134
찹쌀	-8135
해줭	-8136
했슈	-8137
확인	-8138
-20	-8139
▁같지	-8140
▁니진	-8141
▁맞는	-8142
▁명찰	-8143
▁모가	-8144
▁목어	-8145
▁목이	-8146
▁몰빵	-8147
▁못올	-8148
▁못차	-8149
▁못했	-8150
▁무가	-8151
▁무너	-8152
▁문을	-8153
▁뭐래	-8154
▁뭐요	-8155
▁뭐했	-8156
▁뭐행	-8157
▁뭘로	-8158
▁뮤슨	-8159
▁밍밍	-8160
▁바뀐	-8161
▁박박	-8162
▁박살	-8163
▁박스	-8164
▁반만	-8165
▁반반	-8166
▁반사	-8167
▁반전	-8168
▁반쪽	-8169
▁받어	-8170
▁밥두	-8171
▁밥집	-8172
▁백알	-8173
▁버내	-8174
▁버는	-8175
▁버렸	-8176
▁버릇	-8177
▁버림	-8178
▁벌벌	-8179
▁범섹	-8180
▁베여	-8181
▁변태	-8182
▁별개	-8183
▁별말	-8184
▁보냄	-8185
▁보단	-8186
▁보통	-8187
▁복수	-8188
▁본가	-8189
▁본인	-8190
▁봐써	-8191
▁봐야	-8192
▁봐줌	-8193
▁봤네	-8194
▁부실	-8195
▁부적	-8196
▁불금	-8197
▁불안	-8198
▁불친	-8199
so	-8200
ᅡᄅ	-8201
▁\	-8202
▁m	-8203
▁썩	-8204
▁썼	-8205
▁쎈	-8206
▁쓴	-8207
▁악	-8208
걸어	-8209
것듀	-8210
규ᅮ	-8211
규규	-8212
대국	-8213
더맨	-8214
두됑	-8215
만난	-8216
부턴	-8217
분증	-8218
뷰네	-8219
서트	-8220
실토	-8221
와썽	-8222
이닝	-8223
이닷	-8224
제해	-8225
주무	-8226
쥬ᅩ	-8227
티커	-8228
▁격려	-8229
▁고개	-8230
▁납치	-8231
▁다닐	-8232
▁드리	-8233
▁따가	-8234
▁모이	-8235
▁무죄	-8236
▁방전	-8237
▁부끄	-8238
▁부터	-8239
▁분위	-8240
▁비밀	-8241
▁비어	-8242
▁비추	-8243
▁빙빙	-8244
▁빛나	-8245
▁빡쳐	-8246
▁빨랑	-8247
▁빵이	-8248
▁빼구	-8249
▁빼라	-8250
▁빼박	-8251
▁뺀질	-8252
▁뻗어	-8253
▁뻘뻘	-8254
▁사귀	-8255
▁사물	-8256
▁사와	-8257
▁사줌	-8258
▁사지	-8259
▁산다	-8260
▁살까	-8261
▁살려	-8262
▁살았	-8263
▁삼김	-8264
▁샀네	-8265
▁샀다	-8266
▁샀음	-8267
▁상봉	-8268
▁서로	-8269
▁서있	-8270
▁선님	-8271
▁선임	-8272
▁설레	-8273
▁성공	-8274
▁성의	-8275
▁성장	-8276
▁섹시	-8277
▁소식	-8278
▁소홀	-8279
▁손도	-8280
▁손은	-8281
▁손이	-8282
▁술집	-8283
▁숨만	-8284
▁숨좀	-8285
▁승률	-8286
▁승진	-8287
▁시른	-8288
▁식겁	-8289
▁실화	-8290
▁싶었	-8291
▁싹싹	-8292
▁쌀쌀	-8293
▁써서	-8294
▁쑤엑	-8295
▁쓰게	-8296
▁쓰구	-8297
▁씨발	-8298
▁씻음	-8299
ᄋᄅ	-8300
▁옥	-8301
▁옳	-8302
▁옼	-8303
과는	-8304
꺼도	-8305
나안	-8306
들렌	-8307
보아	-8308
봤지	-8309
샀음	-8310
슉슉	-8311
승우	-8312
알어	-8313
얼웅	-8314
울해	-8315
이었	-8316
챙김	-8317
치는	-8318
치않	-8319
코롬	-8320
할걸	-8321
형은	-8322
~~❤	-8323
▁걸고	-8324
▁고러	-8325
▁길을	-8326
▁난다	-8327
▁내옆	-8328
▁당황	-8329
▁동댜	-8330
▁등등	-8331
▁머요	-8332
▁바뻐	-8333
▁바뿌	-8334
▁보리	-8335
▁사귄	-8336
▁아꼈	-8337
▁아냥	-8338
▁아씨	-8339
▁아좌	-8340
▁아찔	-8341
▁안놀	-8342
▁안달	-8343
▁안시	-8344
▁안줌	-8345
▁안쪘	-8346
▁앉은	-8347
▁않은	-8348
▁알면	-8349
▁앙응	-8350
▁애초	-8351
▁얄밉	-8352
▁양말	-8353
▁양영	-8354
▁어여	-8355
▁어질	-8356
▁어째	-8357
▁어찌	-8358
▁어키	-8359
▁억지	-8360
▁언년	-8361
▁얻고	-8362
▁얼겠	-8363
▁얼얼	-8364
▁없니	-8365
▁없죠	-8366
▁엌덤	-8367
▁여깄	-8368
▁여섯	-8369
▁여전	-8370
▁역이	-8371
▁연습	-8372
▁열공	-8373
▁염병	-8374
▁영향	-8375
▁영혼	-8376
▁옆구	-8377
▁옆집	-8378
▁오ᅣ	-8379
▁오떄	-8380
▁오미	-8381
▁오우	-8382
▁올걸	-8383
▁올꺼	-8384
▁올듯	-8385
▁올렸	-8386
▁옮겼	-8387
▁옴청	-8388
▁옷도	-8389
▁와써	-8390
▁와쓔	-8391
▁와죠	-8392
▁왔대	-8393
▁왕복	-8394
▁외국	-8395
▁외투	-8396
▁요놈	-8397
▁요런	-8398
▁욕심	-8399
▁N	-8400
▁줬	-8401
▁징	-8402
▁쳤	-8403
▁캠	-8404
▁힣	-8405
같은	-8406
꺼랑	-8407
꼬츄	-8408
단다	-8409
던건	-8410
릴래	-8411
말혀	-8412
목숨	-8413
보나	-8414
애인	-8415
야죵	-8416
어어	-8417
에소	-8418
인이	-8419
저나	-8420
주문	-8421
팸햄	-8422
프로	-8423
▁개취	-8424
▁기쁜	-8425
▁느긋	-8426
▁니네	-8427
▁매님	-8428
▁명상	-8429
▁물도	-8430
▁생활	-8431
▁싫음	-8432
▁안드	-8433
▁어깨	-8434
▁없기	-8435
▁욕은	-8436
▁용돈	-8437
▁용산	-8438
▁우유	-8439
▁운전	-8440
▁울었	-8441
▁원해	-8442
▁위로	-8443
▁유튭	-8444
▁으슬	-8445
▁으유	-8446
▁으음	-8447
▁이기	-8448
▁이마	-8449
▁이발	-8450
▁이씨	-8451
▁인기	-8452
▁인죵	-8453
▁인형	-8454
▁일만	-8455
▁일을	-8456
▁일정	-8457
▁입으	-8458
▁입을	-8459
▁있게	-8460
▁있긴	-8461
▁있남	-8462
▁잊어	-8463
▁자지	-8464
▁작년	-8465
▁작동	-8466
▁잔당	-8467
▁잠겨	-8468
▁잠실	-8469
▁잠을	-8470
▁잡았	-8471
▁잤니	-8472
▁잤대	-8473
▁장염	-8474
▁쟉이	-8475
▁쟤네	-8476
▁저장	-8477
▁전염	-8478
▁전쟁	-8479
▁전체	-8480
▁절망	-8481
▁접수	-8482
▁제벌	-8483
▁제사	-8484
▁조사	-8485
▁조절	-8486
▁조졋	-8487
▁조타	-8488
▁졸귀	-8489
▁졸아	-8490
▁졸았	-8491
▁좌깅	-8492
▁주근	-8493
▁주민	-8494
▁주심	-8495
▁준다	-8496
▁줄여	-8497
▁줄이	-8498
▁중반	-8499
ᄅ음	-8500
▁샹	-8501
▁킹	-8502
▁킼	-8503
▁탕	-8504
▁퉤	-8505
▁팩	-8506
▁헝	-8507
▁협	-8508
▁힌	-8509
▁😅	-8510
꺼임	-8511
남길	-8512
냐먀	-8513
느와	-8514
드트	-8515
생도	-8516
안기	-8517
오지	-8518
이심	-8519
자깅	-8520
찰싸	-8521
▁가래	-8522
▁간호	-8523
▁개기	-8524
▁나ᅲ	-8525
▁나빴	-8526
▁나쵸	-8527
▁다만	-8528
▁러그	-8529
▁머단	-8530
▁멍때	-8531
▁미어	-8532
▁미칠	-8533
▁배가	-8534
▁스프	-8535
▁아껴	-8536
▁아래	-8537
▁아예	-8538
▁아우	-8539
▁아포	-8540
▁안계	-8541
▁연극	-8542
▁오날	-8543
▁자두	-8544
▁중요	-8545
▁중화	-8546
▁줘도	-8547
▁줘서	-8548
▁줘패	-8549
▁쥐금	-8550
▁지굼	-8551
▁지랄	-8552
▁지켜	-8553
▁직급	-8554
▁직접	-8555
▁진작	-8556
▁진정	-8557
▁진통	-8558
▁질투	-8559
▁짐은	-8560
▁집도	-8561
▁짜잔	-8562
▁짬뽕	-8563
▁쨌든	-8564
▁쫌만	-8565
▁차감	-8566
▁참어	-8567
▁참을	-8568
▁찼어	-8569
▁창훈	-8570
▁책빌	-8571
▁책읽	-8572
▁처먹	-8573
▁첫차	-8574
▁체고	-8575
▁체크	-8576
▁쳐다	-8577
▁쳐맞	-8578
▁최소	-8579
▁축축	-8580
▁출격	-8581
▁춥네	-8582
▁충격	-8583
▁취직	-8584
▁치즈	-8585
▁칠리	-8586
▁커밍	-8587
▁커버	-8588
▁커서	-8589
▁콘콘	-8590
▁크킄	-8591
▁키링	-8592
▁키스	-8593
▁타구	-8594
▁타슈	-8595
▁타용	-8596
▁타투	-8597
▁탈락	-8598
▁탈론	-8599
▁🤔	-8600
다닐	-8601
더녀	-8602
세상	-8603
시키	-8604
업슈	-8605
이브	-8606
있죠	-8607
저럼	-8608
▁가글	-8609
▁가네	-8610
▁가르	-8611
▁갔을	-8612
▁그랴	-8613
▁그지	-8614
▁먹엉	-8615
▁먹장	-8616
▁먹지	-8617
▁못볼	-8618
▁빠졌	-8619
▁싀는	-8620
▁안괴	-8621
▁안그	-8622
▁안끊	-8623
▁안다	-8624
▁안빼	-8625
▁안전	-8626
▁안켜	-8627
▁애가	-8628
▁어땡	-8629
▁오기	-8630
▁오바	-8631
▁오캐	-8632
▁우씨	-8633
▁웅ᅲ	-8634
▁웅나	-8635
▁응애	-8636
▁이겨	-8637
▁이경	-8638
▁이년	-8639
▁이떠	-8640
▁이백	-8641
▁이용	-8642
▁이중	-8643
▁이채	-8644
▁일해	-8645
▁잘거	-8646
▁잘맞	-8647
▁잘보	-8648
▁잘함	-8649
▁저깅	-8650
▁지났	-8651
▁찾기	-8652
▁탈주	-8653
▁탈출	-8654
▁탔오	-8655
▁택배	-8656
▁탱탱	-8657
▁토의	-8658
▁톡방	-8659
▁톡줘	-8660
▁통과	-8661
▁톼근	-8662
▁티데	-8663
▁파는	-8664
▁파란	-8665
▁파인	-8666
▁팍팍	-8667
▁판단	-8668
▁팔에	-8669
▁패딩	-8670
▁패스	-8671
▁평일	-8672
▁포토	-8673
▁표시	-8674
▁피러	-8675
▁피면	-8676
▁피부	-8677
▁피치	-8678
▁피피	-8679
▁필때	-8680
▁필래	-8681
▁하시	-8682
▁하심	-8683
▁하아	-8684
▁한달	-8685
▁할말	-8686
▁할일	-8687
▁함박	-8688
▁해쓔	-8689
▁해죠	-8690
▁해줬	-8691
▁해피	-8692
▁햇빛	-8693
▁했남	-8694
▁허니	-8695
▁허벅	-8696
▁헤에	-8697
▁헤엑	-8698
▁현재	-8699
겠냐	-8700
누가	-8701
었단	-8702
인곡	-8703
▁고급	-8704
▁고렇	-8705
▁고정	-8706
▁기발	-8707
▁나닛	-8708
▁나사	-8709
▁너눈	-8710
▁너두	-8711
▁너모	-8712
▁노나	-8713
▁마냥	-8714
▁마셨	-8715
▁마저	-8716
▁말로	-8717
▁뭐노	-8718
▁밥다	-8719
▁밥사	-8720
▁보냉	-8721
▁보냐	-8722
▁보쉴	-8723
▁보임	-8724
▁뻘쭘	-8725
▁사면	-8726
▁사오	-8727
▁사온	-8728
▁사요	-8729
▁사자	-8730
▁사장	-8731
▁사전	-8732
▁사쥬	-8733
▁쉬지	-8734
▁시도	-8735
▁시로	-8736
▁시불	-8737
▁시퍼	-8738
▁싫은	-8739
▁쓰발	-8740
▁연결	-8741
▁연속	-8742
▁왜안	-8743
▁왜우	-8744
▁자가	-8745
▁제출	-8746
▁조질	-8747
▁지는	-8748
▁짤림	-8749
▁타면	-8750
▁하암	-8751
▁형들	-8752
▁호곡	-8753
▁호텔	-8754
▁홀에	-8755
▁화가	-8756
▁화나	-8757
▁화난	-8758
▁화났	-8759
▁확진	-8760
▁환갑	-8761
▁활동	-8762
▁황예	-8763
▁효과	-8764
▁효자	-8765
▁후기	-8766
▁후우	-8767
▁후회	-8768
▁훔냐	-8769
▁흄냐	-8770
▁흐뭇	-8771
▁흐미	-8772
▁흐아	-8773
▁흐엥	-8774
▁흐응	-8775
▁흠흠	-8776
▁히잉	-8777
가겠대	-8778
가는게	-8779
가는겨	-8780
가는척	-8781
가면서	-8782
간다잉	-8783
갈꺼야	-8784
갔나봐	-8785
갔으면	-8786
강ᄉᄋ	-8787
같아요	-8788
거든요	-8789
거면서	-8790
거시퍼	-8791
거에용	-8792
것같네	-8793
겠다고	-8794
고같아	-8795
고나서	-8796
고레고	-8797
고싶고	-8798
고싶오	-8799
사러	-8800
슈슉	-8801
시꺼	-8802
▁ᄋ제	-8803
▁같대	-8804
▁공유	-8805
▁공장	-8806
▁니도	-8807
▁뒤져	-8808
▁맞대	-8809
▁미뚱	-8810
▁미련	-8811
▁미뤄	-8812
▁바껴	-8813
▁바꿀	-8814
▁바빳	-8815
▁부술	-8816
▁수ᅡ	-8817
▁수능	-8818
▁쉬네	-8819
▁쉬다	-8820
▁쏴리	-8821
▁씻오	-8822
▁씻으	-8823
▁씻자	-8824
▁안됐	-8825
▁얼척	-8826
▁우엥	-8827
▁우주	-8828
▁좋앙	-8829
▁진상	-8830
▁출고	-8831
▁출석	-8832
▁출첵	-8833
▁탕슉	-8834
▁한강	-8835
▁한건	-8836
▁한봉	-8837
▁휴강	-8838
거같움	-8839
고아님	-8840
고있엉	-8841
고있오	-8842
고있으	-8843
고해서	-8844
교수님	-8845
구래용	-8846
귀욤아	-8847
그런지	-8848
근처로	-8849
근하게	-8850
기다리	-8851
기면서	-8852
기싫음	-8853
기요미	-8854
긴하지	-8855
껀데요	-8856
끝날지	-8857
끼따줌	-8858
나보ᅥ	-8859
나보넴	-8860
나보지	-8861
나부지	-8862
나오면	-8863
나와소	-8864
나와쓔	-8865
나왔오	-8866
난다며	-8867
놨어요	-8868
는거면	-8869
는건가	-8870
는것도	-8871
는고야	-8872
는구만	-8873
는군아	-8874
는디유	-8875
는사람	-8876
는척해	-8877
니다요	-8878
다니깐	-8879
다면서	-8880
다왔오	-8881
다음에	-8882
단말야	-8883
달라구	-8884
달라함	-8885
대가리	-8886
던거임	-8887
도되나	-8888
도된다	-8889
동포동	-8890
됩니다	-8891
드러기	-8892
드렸어	-8893
드트럭	-8894
들려서	-8895
들부들	-8896
들어봐	-8897
들이네	-8898
떡볶이	-8899
누구	-8900
똘망	-8901
라니	-8902
만들	-8903
알지	-8904
없게	-8905
한지	-8906
▁ᄏᄒ	-8907
▁곱게	-8908
▁괜춘	-8909
▁늦은	-8910
▁늦지	-8911
▁늦춰	-8912
▁대써	-8913
▁대책	-8914
▁대해	-8915
▁된거	-8916
▁똥싸	-8917
▁만이	-8918
▁많대	-8919
▁머금	-8920
▁머야	-8921
▁못버	-8922
▁무거	-8923
▁무잉	-8924
▁무적	-8925
▁묵게	-8926
▁배민	-8927
▁부품	-8928
▁상왕	-8929
▁생긴	-8930
▁신입	-8931
▁어쩐	-8932
▁없나	-8933
▁없누	-8934
▁짐풀	-8935
▁학부	-8936
▁해봐	-8937
▁화안	-8938
▁화욜	-8939
▁화풀	-8940
고자나	-8941
길이야	-8942
끼는중	-8943
나가요	-8944
는거로	-8945
때까지	-8946
뜻인지	-8947
라고함	-8948
랍니다	-8949
랬다가	-8950
렌지잼	-8951
려궁ᄉ	-8952
려규요	-8953
렸는데	-8954
렸더니	-8955
롭히고	-8956
루했어	-8957
르게써	-8958
리게가	-8959
리는데	-8960
리바리	-8961
리스마	-8962
리지마	-8963
린다구	-8964
립니다	-8965
마렵다	-8966
만났어	-8967
만두국	-8968
만하다	-8969
만해봐	-8970
말이랑	-8971
말할게	-8972
말해주	-8973
머거용	-8974
머글래	-8975
머니에	-8976
먹는즁	-8977
먹어써	-8978
먹어요	-8979
먹어유	-8980
먹었어	-8981
먹었엉	-8982
먹울래	-8983
먹으래	-8984
먹으면	-8985
명이나	-8986
명이서	-8987
목는중	-8988
목을래	-8989
못했어	-8990
바위보	-8991
방이다	-8992
배고파	-8993
버려두	-8994
버렸네	-8995
버리기	-8996
버리네	-8997
번출구	-8998
번출규	-8999
먼트	-9000
졌대	-9001
줄겡	-9002
하진	-9003
해또	-9004
▁4-	-9005
▁42	-9006
▁개많	-9007
▁귀에	-9008
▁년아	-9009
▁누룽	-9010
▁못자	-9011
▁배송	-9012
▁비는	-9013
▁비맞	-9014
▁비번	-9015
▁비웃	-9016
▁빌려	-9017
▁않으	-9018
▁언재	-9019
▁여러	-9020
▁열고	-9021
▁예란	-9022
▁예민	-9023
▁예의	-9024
▁오옷	-9025
▁올리	-9026
▁와줘	-9027
▁으로	-9028
▁점만	-9029
▁주겅	-9030
▁주게	-9031
▁주황	-9032
▁차에	-9033
▁책은	-9034
▁코앞	-9035
▁피나	-9036
▁혼날	-9037
▁혼밥	-9038
르려고	-9039
베이터	-9040
보내죠	-9041
보내줘	-9042
보낸다	-9043
보냈어	-9044
보는게	-9045
보니꺼	-9046
보려규	-9047
보이는	-9048
복기일	-9049
봅시다	-9050
봤으면	-9051
부렸다	-9052
분거리	-9053
분밖에	-9054
분이랑	-9055
분이용	-9056
분전에	-9057
빠르네	-9058
뻔해서	-9059
뻔했네	-9060
사무소	-9061
상훈씨	-9062
생각이	-9063
소리도	-9064
속에서	-9065
수있찌	-9066
쉬는중	-9067
쉬어요	-9068
슈슈슉	-9069
슙니더	-9070
스럽게	-9071
스케줄	-9072
스터볼	-9073
시간전	-9074
시겠네	-9075
시는거	-9076
시는데	-9077
시에서	-9078
시에용	-9079
시여서	-9080
싶은데	-9081
아ᅵᄂ	-9082
아아아	-9083
아조씨	-9084
아직두	-9085
안들어	-9086
안먹어	-9087
안하게	-9088
안해도	-9089
안해써	-9090
안했어	-9091
앉았어	-9092
알았어	-9093
알이나	-9094
애기야	-9095
야해서	-9096
어ᅡᄋ	-9097
어야대	-9098
어주고	-9099
▁롯	-9100
겹다	-9101
군데	-9102
라뇨	-9103
맞제	-9104
봤음	-9105
없긴	-9106
쭈글	-9107
▁갔지	-9108
▁경험	-9109
▁곧감	-9110
▁넘을	-9111
▁눈떠	-9112
▁눈은	-9113
▁도척	-9114
▁두배	-9115
▁두산	-9116
▁드뎌	-9117
▁만만	-9118
▁몇살	-9119
▁몇일	-9120
▁몰아	-9121
▁방귀	-9122
▁뻐큐	-9123
▁소나	-9124
▁쉅중	-9125
▁야돈	-9126
▁엉망	-9127
▁올림	-9128
▁젊은	-9129
▁참치	-9130
▁편히	-9131
▁하히	-9132
▁현디	-9133
▁히엑	-9134
가볼게	-9135
거같대	-9136
고싶나	-9137
년인데	-9138
는건지	-9139
어나써	-9140
어포도	-9141
없는데	-9142
었냐고	-9143
었다고	-9144
었잖아	-9145
엉ᄉᄋ	-9146
에게서	-9147
에서만	-9148
역으로	-9149
역이다	-9150
였어요	-9151
오는데	-9152
오라구	-9153
오천원	-9154
오케이	-9155
온다는	-9156
와도돼	-9157
왓어요	-9158
왔옹ᄉ	-9159
왔으면	-9160
울리고	-9161
울엄마	-9162
웃기네	-9163
웨이가	-9164
유ᅥᄊ	-9165
으시면	-9166
은거야	-9167
이겠지	-9168
이구만	-9169
이긴해	-9170
이나봐	-9171
이다가	-9172
이던데	-9173
이라규	-9174
이바이	-9175
이에여	-9176
이였나	-9177
이지롱	-9178
이지만	-9179
이한테	-9180
인가요	-9181
인지는	-9182
일까지	-9183
일이면	-9184
입니까	-9185
입니더	-9186
입지요	-9187
있냐구	-9188
있는고	-9189
있는곳	-9190
있는중	-9191
있더라	-9192
있어도	-9193
있어용	-9194
있었어	-9195
자고있	-9196
자는중	-9197
자친구	-9198
재밌게	-9199
전까지	-9200
정도로	-9201
정도에	-9202
정도요	-9203
졌는데	-9204
졌으면	-9205
주니까	-9206
주지도	-9207
줄알고	-9208
중인가	-9209
즈베리	-9210
지고기	-9211
지는데	-9212
지도라	-9213
지말까	-9214
지말라	-9215
질거야	-9216
질까봐	-9217
짐하네	-9218
집어져	-9219
찜이랑	-9220
챙기구	-9221
천원이	-9222
천재형	-9223
체놀이	-9224
츠나베	-9225
치는건	-9226
치자나	-9227
칠까봐	-9228
카페인	-9229
크림빵	-9230
탕수육	-9231
프렌즈	-9232
하거나	-9233
하고파	-9234
하긴해	-9235
하께유	-9236
하나만	-9237
하나봐	-9238
하다구	-9239
하던데	-9240
하라는	-9241
하시구	-9242
하자고	-9243
하진않	-9244
한것도	-9245
한데서	-9246
한시간	-9247
할거임	-9248
할것같	-9249
할때는	-9250
할때쯤	-9251
할지도	-9252
해ᅭᅥ	-9253
해놓고	-9254
해보게	-9255
해보고	-9256
해보께	-9257
해볼까	-9258
해야겠	-9259
해야징	-9260
해야함	-9261
해주마	-9262
해주지	-9263
했겠다	-9264
했나요	-9265
했냐고	-9266
했던데	-9267
했으요	-9268
했자네	-9269
햌ᄉ어	-9270
후라이	-9271
힘들다	-9272
hine	-9273
lsgu	-9274
▁1/3	-9275
▁120	-9276
▁173	-9277
▁2-3	-9278
▁200	-9279
▁2~3	-9280
▁6-1	-9281
▁7~8	-9282
▁8-1	-9283
▁Bhc	-9284
▁Skt	-9285
▁net	-9286
▁ᄀᄎ대	-9287
▁ᄀᄎ은	-9288
▁ᄅᄌᄃ	-9289
▁ᄏᄏ귀	-9290
▁ᄏᄏ너	-9291
▁ᄏᄏ오	-9292
▁ᄏᄏ응	-9293
▁ᄐᄏᄐ	-9294
▁ᅲᅲ좋	-9295
▁ᅲᅳᅲ	-9296
▁가겠소	-9297
▁가까운	-9298
▁가까워	-9299
▁가깝네	-9300
▁가는건	-9301
▁가능해	-9302
▁가려규	-9303
▁가리고	-9304
▁가보고	-9305
▁가보까	-9306
▁가신대	-9307
▁가야대	-9308
▁가운데	-9309
▁가자구	-9310
▁가자잉	-9311
▁가져갔	-9312
▁가지러	-9313
▁간거야	-9314
▁간다잉	-9315
▁간단한	-9316
▁간담회	-9317
▁갈거래	-9318
▁갈거양	-9319
▁갈게잉	-9320
▁갈고야	-9321
▁갈수록	-9322
▁감기약	-9323
▁감자전	-9324
▁갔구나	-9325
▁갔다왕	-9326
▁강의가	-9327
▁강의들	-9328
▁같이먹	-9329
▁같이봐	-9330
▁개마싯	-9331
▁개못생	-9332
▁개발자	-9333
▁개빡쳐	-9334
▁개좋아	-9335
▁갠차너	-9336
▁걔네는	-9337
▁걔네집	-9338
▁거기가	-9339
▁거마어	-9340
▁걱정돼	-9341
▁걱정은	-9342
▁건졌어	-9343
▁걸려서	-9344
▁검은색	-9345
▁것보다	-9346
▁것처럼	-9347
▁겅부중	-9348
▁게다가	-9349
▁게임은	-9350
▁겨울에	-9351
▁견뎌내	-9352
▁경배가	-9353
▁고기도	-9354
▁고기집	-9355
▁고렇게	-9356
▁고마오	-9357
▁고마운	-9358
▁고맙네	-9359
▁고맙지	-9360
▁고민되	-9361
▁고생할	-9362
▁곤란해	-9363
▁골드링	-9364
▁공부가	-9365
▁공부나	-9366
▁공부도	-9367
▁공부행	-9368
▁과제는	-9369
▁관심은	-9370
▁괜찮고	-9371
▁괜찮지	-9372
▁괴롭히	-9373
▁교통비	-9374
▁구경은	-9375
▁구라치	-9376
▁구래요	-9377
▁굴다리	-9378
▁굿이야	-9379
▁귀여미	-9380
▁귀엽니	-9381
▁귀찮다	-9382
▁그거야	-9383
▁그래융	-9384
▁그랬어	-9385
▁그러구	-9386
▁그러다	-9387
▁그러시	-9388
▁그러지	-9389
▁그러코	-9390
▁그런건	-9391
▁그럴까	-9392
▁그럴일	-9393
▁그렇구	-9394
▁그림체	-9395
▁그만서	-9396
▁그만큼	-9397
▁그새끼	-9398
▁글쿤요	-9399
▁금방오	-9400
▁금욜에	-9401
▁급정거	-9402
▁급해서	-9403
▁긍께요	-9404
▁기간이	-9405
▁기다료	-9406
▁기분나	-9407
▁기분도	-9408
▁기분은	-9409
▁기분조	-9410
▁기분풀	-9411
▁기여워	-9412
▁기요미	-9413
▁기차나	-9414
▁기찬타	-9415
▁김가네	-9416
▁김태리	-9417
▁김태윤	-9418
▁까먹구	-9419
▁까먹었	-9420
▁까먹음	-9421
▁깔았음	-9422
▁깰까봐	-9423
▁꺼낸거	-9424
▁꽈배기	-9425
▁꿀잠잘	-9426
▁꿈에서	-9427
▁끊어써	-9428
▁끝나네	-9429
▁끝나요	-9430
▁끝나용	-9431
▁끝나지	-9432
▁끝난다	-9433
▁끝날듯	-9434
▁끝났네	-9435
▁끝났대	-9436
▁끝났엄	-9437
▁끝났지	-9438
▁끝내게	-9439
▁나가는	-9440
▁나갔나	-9441
▁나갔다	-9442
▁나깼어	-9443
▁나둥에	-9444
▁나랑만	-9445
▁나밖에	-9446
▁나쁜놈	-9447
▁나아지	-9448
▁나온겨	-9449
▁나와떠	-9450
▁나와써	-9451
▁나와유	-9452
▁나와줘	-9453
▁나와쪄	-9454
▁나왔으	-9455
▁나왔지	-9456
▁나은듯	-9457
▁나한텐	-9458
▁나혼자	-9459
▁난세는	-9460
▁날인데	-9461
▁남자틴	-9462
▁내껀데	-9463
▁내려용	-9464
▁내렸다	-9465
▁내일로	-9466
▁내일이	-9467
▁내자신	-9468
▁낼부터	-9469
▁냉찜질	-9470
▁넘어져	-9471
▁넣어놨	-9472
▁네시반	-9473
▁노는데	-9474
▁노는중	-9475
▁노상관	-9476
▁노지각	-9477
▁논다고	-9478
▁놀아라	-9479
▁놀아용	-9480
▁누르면	-9481
▁누웠어	-9482
▁눈마주	-9483
▁눈에는	-9484
▁눈이떠	-9485
▁느껴져	-9486
▁느끼고	-9487
▁느낌이	-9488
▁늦게오	-9489
▁늦어질	-9490
▁늦었네	-9491
▁늦지않	-9492
▁다녀왕	-9493
▁다녀용	-9494
▁다노박	-9495
▁다니구	-9496
▁다머금	-9497
▁다먹규	-9498
▁다보고	-9499
▁다씻고	-9500
▁다왔네	-9501
▁다음달	-9502
▁다음쉅	-9503
▁다치면	-9504
▁다컸네	-9505
▁단수라	-9506
▁담배안	-9507
▁담배폈	-9508
▁답답해	-9509
▁대단한	-9510
▁대단해	-9511
▁대답이	-9512
▁더더더	-9513
▁더빨리	-9514
▁더착해	-9515
▁덮덮밥	-9516
▁도넛츠	-9517
▁도대체	-9518
▁도망감	-9519
▁도움이	-9520
▁도착햤	-9521
▁독하다	-9522
▁돈코츠	-9523
▁돌려받	-9524
▁돌아간	-9525
▁동네가	-9526
▁동네로	-9527
▁됐구나	-9528
▁됐다고	-9529
▁되겠네	-9530
▁되겠지	-9531
▁두마리	-9532
▁두찌가	-9533
▁둘러보	-9534
▁둘이네	-9535
▁뒤에서	-9536
▁뒤지게	-9537
▁뒤진다	-9538
▁드가자	-9539
▁드럽게	-9540
▁드리고	-9541
▁드시고	-9542
▁듣고와	-9543
▁들려도	-9544
▁들리자	-9545
▁들어간	-9546
▁들어야	-9547
▁등받이	-9548
▁디져따	-9549
▁디졌다	-9550
▁딱조아	-9551
▁때려죠	-9552
▁떨다가	-9553
▁또장님	-9554
▁똑같은	-9555
▁똑같지	-9556
▁똑똑이	-9557
▁뛰어가	-9558
▁라이프	-9559
▁마늘빵	-9560
▁마들렌	-9561
▁마리오	-9562
▁마싯게	-9563
▁마음에	-9564
▁마이럽	-9565
▁마인드	-9566
▁마치고	-9567
▁만나요	-9568
▁만나용	-9569
▁만났다	-9570
▁만둣국	-9571
▁만드노	-9572
▁만들고	-9573
▁많으면	-9574
▁말대로	-9575
▁말들이	-9576
▁말아줘	-9577
▁말이지	-9578
▁말투가	-9579
▁말하고	-9580
▁말하면	-9581
▁말할까	-9582
▁말해써	-9583
▁말해요	-9584
▁말해준	-9585
▁말했던	-9586
▁말했지	-9587
▁맘에드	-9588
▁맛있는	-9589
▁맛있니	-9590
▁맛있대	-9591
▁맛있음	-9592
▁망가뜨	-9593
▁맞긴해	-9594
▁맞는데	-9595
▁맞는듯	-9596
▁맞다맞	-9597
▁맞춰봐	-9598
▁맡으면	-9599
▁매니저	-9600
▁매장이	-9601
▁맹세코	-9602
▁머가웃	-9603
▁머거용	-9604
▁머글래	-9605
▁머드실	-9606
▁머리도	-9607
▁머시켜	-9608
▁머핀은	-9609
▁머하게	-9610
▁머하긴	-9611
▁먹구이	-9612
▁먹기시	-9613
▁먹는데	-9614
▁먹던건	-9615
▁먹었슈	-9616
▁먹었엉	-9617
▁먹은게	-9618
▁먹을꺼	-9619
▁먹을때	-9620
▁먹자구	-9621
▁먼소리	-9622
▁멀쩡해	-9623
▁멋대로	-9624
▁멍청이	-9625
▁멍청한	-9626
▁메타몽	-9627
▁몇번째	-9628
▁몇시가	-9629
▁모르지	-9630
▁모습을	-9631
▁모하닝	-9632
▁목욜에	-9633
▁목을거	-9634
▁몰라유	-9635
▁몰빵은	-9636
▁몰아서	-9637
▁몸보신	-9638
▁못가게	-9639
▁못가서	-9640
▁못봐서	-9641
▁못생기	-9642
▁못자고	-9643
▁못챙겨	-9644
▁못하구	-9645
▁못해서	-9646
▁무서어	-9647
▁무섭다	-9648
▁무슨역	-9649
▁무적이	-9650
▁묵을까	-9651
▁문자를	-9652
▁문제가	-9653
▁물어낼	-9654
▁뭐먹고	-9655
▁뭐먹냐	-9656
▁뭐어때	-9657
▁뭐있어	-9658
▁뭐하누	-9659
▁미끄러	-9660
▁미안혀	-9661
▁민수가	-9662
▁바꿔서	-9663
▁바뀐거	-9664
▁바람을	-9665
▁바람이	-9666
▁바바이	-9667
▁바보네	-9668
▁바보라	-9669
▁바부야	-9670
▁바빠요	-9671
▁바뿐가	-9672
▁바지는	-9673
▁바지도	-9674
▁반바지	-9675
▁받았대	-9676
▁받을게	-9677
▁발빠닭	-9678
▁발표는	-9679
▁발표하	-9680
▁밥이랑	-9681
▁방구가	-9682
▁배려심	-9683
▁배아파	-9684
▁버리러	-9685
▁버스가	-9686
▁번갈아	-9687
▁번호도	-9688
▁번호를	-9689
▁벌어서	-9690
▁범석쓰	-9691
▁범석좌	-9692
▁별개로	-9693
▁보고만	-9694
▁보고있	-9695
▁보구싶	-9696
▁보내구	-9697
▁보내용	-9698
▁보낼래	-9699
▁보냈어	-9700
▁보냈음	-9701
▁보는게	-9702
▁보다가	-9703
▁보러가	-9704
▁보안키	-9705
▁보여줘	-9706
▁볶음밥	-9707
▁볼텐데	-9708
▁봐야지	-9709
▁부딪힌	-9710
▁부럽다	-9711
▁부른거	-9712
▁부지런	-9713
▁분이네	-9714
▁불고기	-9715
▁불러봐	-9716
▁불려나	-9717
▁붙어서	-9718
▁블베도	-9719
▁비대면	-9720
▁비비큐	-9721
▁비슷한	-9722
▁비싼거	-9723
▁비오면	-9724
▁빠르네	-9725
▁빡세게	-9726
▁빤니왕	-9727
▁빵이랑	-9728
▁빼놓고	-9729
▁빼려고	-9730
▁사가자	-9731
▁사간다	-9732
▁사거리	-9733
▁사고침	-9734
▁사달라	-9735
▁사람도	-9736
▁사람은	-9737
▁사물함	-9738
▁사이트	-9739
▁사주고	-9740
▁사줘써	-9741
▁살거야	-9742
▁살벌해	-9743
▁살았다	-9744
▁삼계탕	-9745
▁샀어요	-9746
▁샀어용	-9747
▁상했어	-9748
▁샐러드	-9749
▁생각남	-9750
▁생각함	-9751
▁생겨써	-9752
▁생겼어	-9753
▁생기면	-9754
▁생신축	-9755
▁생일때	-9756
▁석계가	-9757
▁선넘네	-9758
▁선물이	-9759
▁설렁탕	-9760
▁성동구	-9761
▁세상에	-9762
▁세상은	-9763
▁세수만	-9764
▁셤기간	-9765
▁소개팅	-9766
▁소외감	-9767
▁소중해	-9768
▁속으로	-9769
▁손님이	-9770
▁솔져스	-9771
▁수고링	-9772
▁수비니	-9773
▁수업가	-9774
▁수업중	-9775
▁수욜에	-9776
▁수험생	-9777
▁수확이	-9778
▁순대국	-9779
▁순살이	-9780
▁쉅이야	-9781
▁쉬어야	-9782
▁쉬어유	-9783
▁쉰다구	-9784
▁쉰다잉	-9785
▁쉴거야	-9786
▁쉴거양	-9787
▁쉴거임	-9788
▁스루스	-9789
▁스마일	-9790
▁스케쥴	-9791
▁스토리	-9792
▁스티커	-9793
▁스파이	-9794
▁스팸햄	-9795
▁슬프고	-9796
▁습해서	-9797
▁시간과	-9798
▁시간애	-9799
▁시간에	-9800
▁시간은	-9801
▁시발이	-9802
▁시켜쓔	-9803
▁시켜야	-9804
▁신경을	-9805
▁신나게	-9806
▁신나지	-9807
▁신났네	-9808
▁신랑이	-9809
▁신메뉴	-9810
▁신분증	-9811
▁신이문	-9812
▁신호등	-9813
▁실시간	-9814
▁심심행	-9815
▁심장이	-9816
▁싶다고	-9817
▁써줘서	-9818
▁쓰는거	-9819
▁쓰려고	-9820
▁씻구왕	-9821
▁씻기구	-9822
▁씻는중	-9823
▁씻을래	-9824
▁아까말	-9825
▁아까움	-9826
▁아녀유	-9827
▁아녜유	-9828
▁아뉭아	-9829
▁아는척	-9830
▁아니네	-9831
▁아니요	-9832
▁아니죠	-9833
▁아닌거	-9834
▁아라씀	-9835
▁아라쭁	-9836
▁아라쮸	-9837
▁아마두	-9838
▁아맞다	-9839
▁아쉽게	-9840
▁아싸뵹	-9841
▁아요미	-9842
▁아이구	-9843
▁아이유	-9844
▁아직안	-9845
▁아프다	-9846
▁안가유	-9847
▁안갔어	-9848
▁안걸리	-9849
▁안그러	-9850
▁안나온	-9851
▁안나와	-9852
▁안남아	-9853
▁안늦어	-9854
▁안되네	-9855
▁안되는	-9856
▁안들켜	-9857
▁안맞아	-9858
▁안먹냐	-9859
▁안미워	-9860
▁안받지	-9861
▁안보고	-9862
▁안아포	-9863
▁안알려	-9864
▁안에서	-9865
▁안에있	-9866
▁안열었	-9867
▁안오고	-9868
▁안올라	-9869
▁안웃겨	-9870
▁안잡혀	-9871
▁안잤어	-9872
▁안주무	-9873
▁안통함	-9874
▁안하구	-9875
▁안하규	-9876
▁안하는	-9877
▁안하지	-9878
▁안할듯	-9879
▁안해줘	-9880
▁않았다	-9881
▁않은데	-9882
▁알게쏭	-9883
▁알겠대	-9884
▁알겠소	-9885
▁알겠으	-9886
▁알라뷰	-9887
▁알람울	-9888
▁알려줬	-9889
▁알았다	-9890
▁알았오	-9891
▁알지도	-9892
▁앞머리	-9893
▁애기꺼	-9894
▁애기씨	-9895
▁애초에	-9896
▁야들이	-9897
▁약먹고	-9898
▁약속도	-9899
▁약속은	-9900
▁약속이	-9901
▁약속해	-9902
▁약수야	-9903
▁얌전히	-9904
▁양고기	-9905
▁양성나	-9906
▁얘기야	-9907
▁어늘은	-9908
▁어니면	-9909
▁어디감	-9910
▁어디꺼	-9911
▁어디냐	-9912
▁어디노	-9913
▁어디다	-9914
▁어디에	-9915
▁어딘교	-9916
▁어딘뎅	-9917
▁어떠케	-9918
▁어떨지	-9919
▁어라랏	-9920
▁어렵다	-9921
▁어마어	-9922
▁어울릴	-9923
▁어이쿠	-9924
▁어제랑	-9925
▁어직도	-9926
▁어쩌지	-9927
▁어쩔수	-9928
▁어케잉	-9929
▁언제나	-9930
▁언제든	-9931
▁언젠지	-9932
▁얼굴에	-9933
▁얼른왕	-9934
▁얼리면	-9935
▁엄마는	-9936
▁없는게	-9937
▁없어용	-9938
▁없었네	-9939
▁없지만	-9940
▁에반데	-9941
▁에어팟	-9942
▁에효효	-9943
▁엘가여	-9944
▁여기로	-9945
▁여기루	-9946
▁여유롭	-9947
▁여자가	-9948
▁여자는	-9949
▁여전히	-9950
▁역으로	-9951
▁연락도	-9952
▁연락은	-9953
▁연락혀	-9954
▁열받아	-9955
▁열어서	-9956
▁열일중	-9957
▁영어로	-9958
▁옆에서	-9959
▁예뿌네	-9960
▁예뿌니	-9961
▁예쁘구	-9962
▁예쁘다	-9963
▁예쁜데	-9964
▁오거랏	-9965
▁오는거	-9966
▁오는겨	-9967
▁오늘의	-9968
▁오도록	-9969
▁오디니	-9970
▁오디쯤	-9971
▁오떤데	-9972
▁오라구	-9973
▁오븐에	-9974
▁오세요	-9975
▁오신대	-9976
▁오오오	-9977
▁오이시	-9978
▁오픈은	-9979
▁온다네	-9980
▁온대유	-9981
▁온전히	-9982
▁올게유	-9983
▁올라갔	-9984
▁올라오	-9985
▁올렸어	-9986
▁올린거	-9987
▁올시간	-9988
▁옮겼어	-9989
▁옴마가	-9990
▁옷입고	-9991
▁와도돼	-9992
▁왔구나	-9993
▁왔엉ᄉ	-9994
▁왜들어	-9995
▁왜벌어	-9996
▁왜안봐	-9997
▁왜웃니	-9998
▁왜자꾸	-9999
▁외국인	-10000
▁요기용	-10001
▁요앞에	-10002
▁요지랄	-10003
▁용마산	-10004
▁우렁신	-10005
▁우산도	-10006
▁우산을	-10007
▁우짤래	-10008
▁운동장	-10009
▁울리자	-10010
▁울매장	-10011
▁울준서	-10012
▁움직여	-10013
▁웃기네	-10014
▁웃음이	-10015
▁웅애기	-10016
▁원하는	-10017
▁월곡역	-10018
▁월마다	-10019
▁웨이팅	-10020
▁위험해	-10021
▁유니폼	-10022
▁음식물	-10023
▁응ᄋ응	-10024
▁응원해	-10025
▁의사쌤	-10026
▁이거는	-10027
▁이거보	-10028
▁이거임	-10029
▁이걸로	-10030
▁이것두	-10031
▁이경배	-10032
▁이기면	-10033
▁이놈의	-10034
▁이눔아	-10035
▁이래서	-10036
▁이름은	-10037
▁이마넌	-10038
▁이번에	-10039
▁이뿌다	-10040
▁이쁘게	-10041
▁이쁜거	-10042
▁이쁜이	-10043
▁이샤끼	-10044
▁이수빈	-10045
▁이승민	-10046
▁이써요	-10047
▁이야야	-10048
▁이유를	-10049
▁이자식	-10050
▁이제는	-10051
▁이제야	-10052
▁이지랄	-10053
▁이태원	-10054
▁인간은	-10055
▁인기가	-10056
▁인나면	-10057
▁인사도	-10058
▁인사만	-10059
▁인상써	-10060
▁일어난	-10061
▁일정이	-10062
▁일하구	-10063
▁읽었어	-10064
▁임채리	-10065
▁임체리	-10066
▁잇츠미	-10067
▁있길래	-10068
▁있는뎀	-10069
▁있다구	-10070
▁있다는	-10071
▁있더라	-10072
▁있었나	-10073
▁있었네	-10074
▁있었다	-10075
▁있을듯	-10076
▁잉ᅲᅲ	-10077
▁자기ᅲ	-10078
▁자기로	-10079
▁자기말	-10080
▁자기면	-10081
▁자기의	-10082
▁자는거	-10083
▁자는중	-10084
▁자래따	-10085
▁자버렸	-10086
▁자버림	-10087
▁자빠져	-10088
▁자식아	-10089
▁자신감	-10090
▁자야지	-10091
▁작업복	-10092
▁작은거	-10093
▁잘가랏	-10094
▁잘가요	-10095
▁잘못본	-10096
▁잘보고	-10097
▁잘수있	-10098
▁잘자구	-10099
▁잘자요	-10100
▁잘준비	-10101
▁잘해따	-10102
▁잘해서	-10103
▁잘했오	-10104
▁잘했지	-10105
▁잠ᄆ나	-10106
▁잠만용	-10107
▁잤나봐	-10108
▁잤으면	-10109
▁장난치	-10110
▁장사안	-10111
▁장애인	-10112
▁재미없	-10113
▁재밌냐	-10114
▁재신청	-10115
▁재우고	-10116
▁쟈기는	-10117
▁저나로	-10118
▁저나행	-10119
▁저녁은	-10120
▁적어서	-10121
▁전화가	-10122
▁전화는	-10123
▁전화돼	-10124
▁전화온	-10125
▁전화중	-10126
▁점심에	-10127
▁정도는	-10128
▁정민이	-10129
▁정신이	-10130
▁정주행	-10131
▁정했어	-10132
▁정확히	-10133
▁제빙기	-10134
▁조지자	-10135
▁조케따	-10136
▁조케써	-10137
▁졸았어	-10138
▁좀아까	-10139
▁좀장님	-10140
▁좆같다	-10141
▁좆빡쳐	-10142
▁좋다고	-10143
▁좋다구	-10144
▁좋았다	-10145
▁좋은거	-10146
▁좋을까	-10147
▁좌기는	-10148
▁주말이	-10149
▁죽고싶	-10150
▁죽일까	-10151
▁준서가	-10152
▁준서는	-10153
▁준엽이	-10154
▁즐거운	-10155
▁즐거워	-10156
▁즐겁니	-10157
▁지나면	-10158
▁지나서	-10159
▁지승우	-10160
▁진작에	-10161
▁진지해	-10162
▁진짜임	-10163
▁진통제	-10164
▁질수없	-10165
▁짐챙겨	-10166
▁집가게	-10167
▁집가겡	-10168
▁집가고	-10169
▁집간대	-10170
▁집갈듯	-10171
▁집들려	-10172
▁집어넣	-10173
▁집이나	-10174
▁집이야	-10175
▁짜장면	-10176
▁짱나네	-10177
▁짱빨리	-10178
▁쪼끔만	-10179
▁찍어도	-10180
▁찍어서	-10181
▁찡찡거	-10182
▁차타고	-10183
▁착하네	-10184
▁참지마	-10185
▁찾아서	-10186
▁챙겨요	-10187
▁챙기고	-10188
▁챙긴다	-10189
▁처음에	-10190
▁천재형	-10191
▁체리랑	-10192
▁최고얌	-10193
▁최고지	-10194
▁최우선	-10195
▁추우면	-10196
▁출구나	-10197
▁치킨도	-10198
▁칠면조	-10199
▁칭찬받	-10200
▁카드는	-10201
▁카드키	-10202
▁카레야	-10203
▁카레집	-10204
▁카톡도	-10205
▁카톡은	-10206
▁카톡할	-10207
▁카톡해	-10208
▁카페에	-10209
▁커피도	-10210
▁케이스	-10211
▁켜놓고	-10212
▁콩국수	-10213
▁쿵따따	-10214
▁키아나	-10215
▁키키킼	-10216
▁키킼ᄀ	-10217
▁타는데	-10218
▁탔는데	-10219
▁태워다	-10220
▁터졌어	-10221
▁테이블	-10222
▁토실토	-10223
▁토욜에	-10224
▁통마늘	-10225
▁파리바	-10226
▁파파가	-10227
▁편해서	-10228
▁포인트	-10229
▁포장마	-10230
▁푹자고	-10231
▁푹잤어	-10232
▁피로는	-10233
▁피방갈	-10234
▁피씨알	-10235
▁필요가	-10236
▁필요도	-10237
▁하나가	-10238
▁하나두	-10239
▁하나에	-10240
▁하나여	-10241
▁하네요	-10242
▁하느라	-10243
▁하는걸	-10244
▁하는게	-10245
▁하늘이	-10246
▁하덜덜	-10247
▁하라고	-10248
▁하려구	-10249
▁하려는	-10250
▁하루만	-10251
▁하이볼	-10252
▁학교도	-10253
▁한가득	-10254
▁한거야	-10255
▁한국식	-10256
▁한번도	-10257
▁한잔만	-10258
▁한통도	-10259
▁할거는	-10260
▁할것도	-10261
▁할게유	-10262
▁할만해	-10263
▁해도돼	-10264
▁해보게	-10265
▁해보고	-10266
▁해보께	-10267
▁해주께	-10268
▁해주면	-10269
▁해준대	-10270
▁해줄까	-10271
▁해줘잉	-10272
▁했지만	-10273
▁허ᅡᄀ	-10274
▁헝그리	-10275
▁헬스장	-10276
▁현지님	-10277
▁현지드	-10278
▁현지쓰	-10279
▁현지씨	-10280
▁현찰싸	-10281
▁호구로	-10282
▁호야랑	-10283
▁혼났어	-10284
▁혼자선	-10285
▁혼자용	-10286
▁혼쭐내	-10287
▁홀리쉣	-10288
▁화낸건	-10289
▁화욜에	-10290
▁화장품	-10291
▁화채를	-10292
▁확실한	-10293
▁확인했	-10294
▁회기동	-10295
▁회색이	-10296
▁휴게소	-10297
▁힘드로	-10298
가고싶당	-10299
가기전에	-10300
가야겠네	-10301
갈거같아	-10302
갑니데이	-10303
갔다올게	-10304
같으니까	-10305
고싶어서	-10306
고싶었어	-10307
고있는거	-10308
그래그래	-10309
기다렸어	-10310
기로해서	-10311
기로해써	-10312
기로했오	-10313
남길게요	-10314
너무너무	-10315
놔야겠다	-10316
대로해요	-10317
도착해쓔	-10318
도척해서	-10319
됐나보네	-10320
드릴게요	-10321
들어가서	-10322
들어가유	-10323
라고해서	-10324
러가는데	-10325
러왔어요	-10326
린다는데	-10327
만우ᅩᄂ	-10328
먹었는데	-10329
먹었어요	-10330
먹으려고	-10331
먹을래요	-10332
먹을텐데	-10333
보이더라	-10334
볼게요잉	-10335
사람이랑	-10336
수도있지	-10337
수있으면	-10338
시간이네	-10339
시간인데	-10340
시간정도	-10341
시반인가	-10342
시반퇴근	-10343
시언저리	-10344
아니겠지	-10345
아니냐구	-10346
아보이네	-10347
안받아서	-10348
야하는고	-10349
야하니께	-10350
없으니까	-10351
었습니다	-10352
었으니까	-10353
오라는데	-10354
왔습니다	-10355
위사거리	-10356
으려구요	-10357
으로오ᅥ	-10358
을거라고	-10359
을때까지	-10360
이고싶어	-10361
이구나야	-10362
이였구나	-10363
있을거야	-10364
자나ᅲᅲ	-10365
잖아ᅲᅲ	-10366
조마하죠	-10367
줄수있남	-10368
줄테니까	-10369
지도않고	-10370
지도않음	-10371
지말라구	-10372
지말라해	-10373
집어지게	-10374
집왔어요	-10375
천원어치	-10376
큐ᅲᅲᅲ	-10377
테이크랑	-10378
하겠네용	-10379
하고싶다	-10380
하고있니	-10381
하구이썽	-10382
하나보네	-10383
하다는게	-10384
하다니까	-10385
하려구요	-10386
하시면서	-10387
하하하하	-10388
한거냐고	-10389
한거라고	-10390
한다해서	-10391
할거같아	-10392
할것같음	-10393
해보려고	-10394
해보여서	-10395
해써ᅲᅲ	-10396
해야된대	-10397
했는데ᅲ	-10398
했으면서	-10399
호선타고	-10400
lease	-10401
▁1000	-10402
▁1314	-10403
▁6367	-10404
▁8000	-10405
▁Cctv	-10406
▁Suns	-10407
▁Zzzz	-10408
▁cctv	-10409
▁good	-10410
▁zzzz	-10411
▁ᄇᄃᄇᄃ	-10412
▁ᄏᄏᄏ으	-10413
▁ᄏᄏ귀여	-10414
▁ᄏᄏ얼른	-10415
▁ᄏᄏ자기	-10416
▁ᄒᄒᄒᄒ	-10417
▁가고싶다	-10418
▁가고싶더	-10419
▁가고이써	-10420
▁가고있니	-10421
▁가기전에	-10422
▁가는고야	-10423
▁가능해서	-10424
▁가려고요	-10425
▁가보니까	-10426
▁가보려고	-10427
▁가보실까	-10428
▁가보자고	-10429
▁가볼게요	-10430
▁가볼까낭	-10431
▁가있을래	-10432
▁가자가자	-10433
▁가자는데	-10434
▁가자마자	-10435
▁가져가고	-10436
▁가져가면	-10437
▁가져갈게	-10438
▁가져왔어	-10439
▁가츠나베	-10440
▁간다간닷	-10441
▁간식으로	-10442
▁갈거같아	-10443
▁갈거에유	-10444
▁갈아입고	-10445
▁갈아탈때	-10446
▁감자달라	-10447
▁감점이야	-10448
▁갑니다용	-10449
▁강의끝났	-10450
▁같이갈까	-10451
▁같이갈래	-10452
▁같이목자	-10453
▁같이있어	-10454
▁같이피자	-10455
▁개까먹음	-10456
▁개뛰어서	-10457
▁개맛있음	-10458
▁개웃기넹	-10459
▁개점사고	-10460
▁갠차나요	-10461
▁갠차나유	-10462
▁갠차나융	-10463
▁거기다가	-10464
▁거기에서	-10465
▁거마워요	-10466
▁걱정되면	-10467
▁건강검진	-10468
▁건대에서	-10469
▁걷고있어	-10470
▁걸으니까	-10471
▁결과물을	-10472
▁고등학교	-10473
▁고맙다고	-10474
▁고맙다구	-10475
▁고맙다귱	-10476
▁고민하고	-10477
▁고생하면	-10478
▁고생해떠	-10479
▁고생했따	-10480
▁고정으로	-10481
▁고쳤으면	-10482
▁고친거야	-10483
▁고통스러	-10484
▁곱도리탕	-10485
▁공부중이	-10486
▁공부하지	-10487
▁공부해라	-10488
▁공부해유	-10489
▁공연이나	-10490
▁교수님도	-10491
▁귀엽겠네	-10492
▁귀엽다구	-10493
▁귀요미야	-10494
▁귀찮다고	-10495
▁그게머야	-10496
▁그래줄래	-10497
▁그랬으면	-10498
▁그러려고	-10499
▁그러자구	-10500
▁그런얘기	-10501
▁그럴까봐	-10502
▁그럴리가	-10503
▁그렇다구	-10504
▁그렇다쳐	-10505
▁그레이가	-10506
▁근처니까	-10507
▁근처오면	-10508
▁금토일에	-10509
▁기다려야	-10510
▁기다려요	-10511
▁기다리게	-10512
▁기다릴겸	-10513
▁기죽지마	-10514
▁깨워줘서	-10515
▁깨웠는데	-10516
▁꺼내먹어	-10517
▁꾸역꾸역	-10518
▁꿀잠잤어	-10519
▁끌어안구	-10520
▁끝나가요	-10521
▁끝나니까	-10522
▁끝났다고	-10523
▁끝났다아	-10524
▁끝났으면	-10525
▁끝났으유	-10526
▁나가겠네	-10527
▁나가께유	-10528
▁나가는거	-10529
▁나가는데	-10530
▁나가려면	-10531
▁나갈건데	-10532
▁나랑같이	-10533
▁나오니까	-10534
▁나오면서	-10535
▁나와써요	-10536
▁나왔으면	-10537
▁난리였네	-10538
▁남았다아	-10539
▁남해바다	-10540
▁내가방에	-10541
▁내렸어요	-10542
▁내버려두	-10543
▁내일이면	-10544
▁내장함수	-10545
▁냉동으로	-10546
▁냉장고에	-10547
▁너가왱ᄉ	-10548
▁너한테만	-10549
▁노노노노	-10550
▁노력해보	-10551
▁놀구있어	-10552
▁놀랐겠다	-10553
▁놀랬겠네	-10554
▁놀아야지	-10555
▁누가봐도	-10556
▁누끼따줌	-10557
▁누워이써	-10558
▁누워있음	-10559
▁눈뜨니까	-10560
▁눈치보이	-10561
▁느긋하게	-10562
▁느리게가	-10563
▁늦게가지	-10564
▁늦게쉬네	-10565
▁늦게오면	-10566
▁늦게와서	-10567
▁늦었지만	-10568
▁늦을수도	-10569
▁늦잠잤어	-10570
▁니진스키	-10571
▁다녀온다	-10572
▁다다음주	-10573
▁다먹어서	-10574
▁다섯시에	-10575
▁다씻었어	-10576
▁다와가요	-10577
▁다음주는	-10578
▁다음주에	-10579
▁다행이넹	-10580
▁다행이당	-10581
▁다행인데	-10582
▁달라하면	-10583
▁달아줬지	-10584
▁담배피자	-10585
▁담배피장	-10586
▁담배핀다	-10587
▁담배필래	-10588
▁대단하네	-10589
▁대박사건	-10590
▁대박사곤	-10591
▁대충하고	-10592
▁더착예정	-10593
▁더착하면	-10594
▁더착했어	-10595
▁도착하고	-10596
▁도착한대	-10597
▁도착했는	-10598
▁돈안내고	-10599
▁돌곶이루	-10600
▁동글이랑	-10601
▁동네가서	-10602
▁동네가요	-10603
▁동네오면	-10604
▁동민이만	-10605
▁동사무소	-10606
▁돼지고기	-10607
▁됐구만유	-10608
▁될거같아	-10609
▁두개가져	-10610
▁두고왔어	-10611
▁두근거려	-10612
▁두근두근	-10613
▁두드러기	-10614
▁두시간만	-10615
▁두알이나	-10616
▁둘이어서	-10617
▁뒤돌아서	-10618
▁드간다잉	-10619
▁드라이브	-10620
▁듣구와용	-10621
▁들어갔닝	-10622
▁들어강ᄑ	-10623
▁들어와써	-10624
▁들오간다	-10625
▁들으니까	-10626
▁들으면서	-10627
▁디카페인	-10628
▁따듯해서	-10629
▁때려치고	-10630
▁때리던지	-10631
▁떡만두국	-10632
▁떨어지고	-10633
▁레고레고	-10634
▁마니머거	-10635
▁마니먹구	-10636
▁마니먹오	-10637
▁마라탕은	-10638
▁마주치면	-10639
▁마트에서	-10640
▁막담하로	-10641
▁막판하구	-10642
▁만날수도	-10643
▁많이해서	-10644
▁말이였어	-10645
▁말하니까	-10646
▁말해라잉	-10647
▁말해야지	-10648
▁말해죠잉	-10649
▁말해줘용	-10650
▁말했으면	-10651
▁맛나보여	-10652
▁맛있겠따	-10653
▁맛있겠지	-10654
▁맛있도라	-10655
▁맛있어요	-10656
▁맞제맞제	-10657
▁맞춰놓고	-10658
▁매장가서	-10659
▁매장에서	-10660
▁매장으로	-10661
▁머글거야	-10662
▁머라는겨	-10663
▁머리로는	-10664
▁머먹을래	-10665
▁머하느라	-10666
▁먹고시푼	-10667
▁먹고올게	-10668
▁먹고올까	-10669
▁먹는다고	-10670
▁먹어보자	-10671
▁먹었다고	-10672
▁먹으려면	-10673
▁먹은거야	-10674
▁먹은지도	-10675
▁먹을건데	-10676
▁먹자는거	-10677
▁먼저피면	-10678
▁며칠이나	-10679
▁모르겠고	-10680
▁모르겠구	-10681
▁모르겠음	-10682
▁모르는거	-10683
▁목요일로	-10684
▁몬스터볼	-10685
▁못찾아서	-10686
▁못하니까	-10687
▁무서운게	-10688
▁무음으로	-10689
▁문상훈씨	-10690
▁물어본거	-10691
▁물어볼까	-10692
▁뭐먹고싶	-10693
▁뭐먹을지	-10694
▁뭐하고있	-10695
▁뭔소리야	-10696
▁미아리우	-10697
▁미안하오	-10698
▁미안해서	-10699
▁미친소리	-10700
▁민정맴은	-10701
▁민정맴이	-10702
▁바로잤어	-10703
▁바이바이	-10704
▁바질이랑	-10705
▁받아들여	-10706
▁받았는데	-10707
▁받으러가	-10708
▁받을게요	-10709
▁받을수있	-10710
▁밥다먹고	-10711
▁밥먹고있	-10712
▁밥먹는다	-10713
▁밥먹어용	-10714
▁밥먹으면	-10715
▁밥먹을거	-10716
▁배고플때	-10717
▁배부르게	-10718
▁배불러서	-10719
▁배터리가	-10720
▁배터지게	-10721
▁버스타고	-10722
▁벌벌떨려	-10723
▁범석이네	-10724
▁베이지가	-10725
▁병원와서	-10726
▁보고싶당	-10727
▁보내줄듯	-10728
▁부들부들	-10729
▁부모님이	-10730
▁불러야지	-10731
▁불편하고	-10732
▁불편하면	-10733
▁불편해서	-10734
▁붙여넣을	-10735
▁비빔국수	-10736
▁비슷해서	-10737
▁비오는데	-10738
▁비요뜨는	-10739
▁빨래하구	-10740
▁뽀뽀해주	-10741
▁사가는거	-10742
▁사다줄게	-10743
▁사람인데	-10744
▁사랑하는	-10745
▁사랑하지	-10746
▁사미인곡	-10747
▁사주는데	-10748
▁삼각김밥	-10749
▁상왕십리	-10750
▁새벽부터	-10751
▁생각없이	-10752
▁생각하면	-10753
▁생각하지	-10754
▁생각해서	-10755
▁생각해요	-10756
▁생각했지	-10757
▁생리대는	-10758
▁서운함을	-10759
▁서편제도	-10760
▁석계가서	-10761
▁석계까지	-10762
▁석계로가	-10763
▁선풍기도	-10764
▁성수에서	-10765
▁성현이가	-10766
▁성현이는	-10767
▁수빈이가	-10768
▁수업시작	-10769
▁수업이라	-10770
▁수업이야	-10771
▁수있겠다	-10772
▁수학문제	-10773
▁술마시러	-10774
▁술먹으러	-10775
▁쉅이자나	-10776
▁쉬러가서	-10777
▁쉬러가셨	-10778
▁쉬워쉬워	-10779
▁쉴거같아	-10780
▁쉴거에용	-10781
▁스근하게	-10782
▁시간되면	-10783
▁시간될때	-10784
▁시간맞춰	-10785
▁시발련이	-10786
▁시발롬들	-10787
▁시원하네	-10788
▁시원해지	-10789
▁시체놀이	-10790
▁시켜줄게	-10791
▁시켰는데	-10792
▁시험보러	-10793
▁실수한거	-10794
▁실장님의	-10795
▁심심하네	-10796
▁심심하다	-10797
▁심심해서	-10798
▁쑤엑쑤엑	-10799
▁씨없는거	-10800
▁씨익씨악	-10801
▁씻거올겡	-10802
▁씻고나왔	-10803
▁씻었어용	-10804
▁씻오야지	-10805
▁아ᅵᄌᄀ	-10806
▁아까보다	-10807
▁아는사람	-10808
▁아니구나	-10809
▁아니라는	-10810
▁아니어니	-10811
▁아니에용	-10812
▁아니였어	-10813
▁아니지만	-10814
▁아라쪄요	-10815
▁아부지가	-10816
▁아빠한테	-10817
▁아쉬웠어	-10818
▁아야ᅲᅲ	-10819
▁아이키가	-10820
▁아직까지	-10821
▁아파해서	-10822
▁아프겠다	-10823
▁안가두돼	-10824
▁안간다고	-10825
▁안경쓰고	-10826
▁안고있자	-10827
▁안고파서	-10828
▁안고픈데	-10829
▁안나가고	-10830
▁안남아따	-10831
▁안남아서	-10832
▁안났는데	-10833
▁안늦겠어	-10834
▁안늦어요	-10835
▁안다치게	-10836
▁안되겠어	-10837
▁안되겠지	-10838
▁안되려나	-10839
▁안된다고	-10840
▁안들어가	-10841
▁안들어오	-10842
▁안들어요	-10843
▁안먹으면	-10844
▁안먹을게	-10845
▁안보이지	-10846
▁안아주면	-10847
▁안해줘서	-10848
▁안했는데	-10849
▁안했는디	-10850
▁안했잖아	-10851
▁알겠다고	-10852
▁알겠다구	-10853
▁알겠어욥	-10854
▁알겠으유	-10855
▁알람맞춰	-10856
▁알았다구	-10857
▁알았어용	-10858
▁알어나써	-10859
▁애기보러	-10860
▁애기애기	-10861
▁애기처럼	-10862
▁야들이랑	-10863
▁약수에서	-10864
▁약수에요	-10865
▁양의영도	-10866
▁양치하고	-10867
▁얘기하는	-10868
▁얘기하면	-10869
▁얘기할게	-10870
▁얘기해유	-10871
▁얘기해죠	-10872
▁어디냐구	-10873
▁어디다가	-10874
▁어디에요	-10875
▁어르신들	-10876
▁어머니가	-10877
▁어머니는	-10878
▁어무니가	-10879
▁어무니도	-10880
▁어무니집	-10881
▁어제보다	-10882
▁어질어질	-10883
▁언년이랑	-10884
▁언제나가	-10885
▁언제쉬어	-10886
▁언제오노	-10887
▁얻어먹을	-10888
▁얼굴케미	-10889
▁얼른보쟈	-10890
▁얼른와랏	-10891
▁얼른와서	-10892
▁얼른와유	-10893
▁얼척없어	-10894
▁엄마집에	-10895
▁엄청일찍	-10896
▁없나보네	-10897
▁없습니다	-10898
▁없었는데	-10899
▁없으셨어	-10900
▁엉덩이가	-10901
▁엉덩이도	-10902
▁에그마요	-10903
▁에바긴해	-10904
▁에바야ᅲ	-10905
▁여기저기	-10906
▁여섯시반	-10907
▁연구실도	-10908
▁연락줘서	-10909
▁연속으로	-10910
▁열쇠있어	-10911
▁열심히해	-10912
▁열어준대	-10913
▁예뻐보여	-10914
▁예정이야	-10915
▁옛날에는	-10916
▁오래걸리	-10917
▁오랜시간	-10918
▁오천원만	-10919
▁오키오키	-10920
▁오트밀이	-10921
▁오픈이면	-10922
▁오픈하고	-10923
▁올때까지	-10924
▁올라가요	-10925
▁올라가용	-10926
▁올라와서	-10927
▁왜아직두	-10928
▁우리끼리	-10929
▁우리집에	-10930
▁우산있니	-10931
▁우산챙기	-10932
▁울애기가	-10933
▁울애기는	-10934
▁울자기는	-10935
▁웹툰이나	-10936
▁위에가서	-10937
▁유튜브봐	-10938
▁으슬으슬	-10939
▁은근슬쩍	-10940
▁음성이면	-10941
▁응원할게	-10942
▁의영이는	-10943
▁이거밖에	-10944
▁이따보장	-10945
▁이따봐유	-10946
▁이러고있	-10947
▁이러니까	-10948
▁이상해씨	-10949
▁이새끼는	-10950
▁이새끼들	-10951
▁이야야야	-10952
▁이제출발	-10953
▁이틀동안	-10954
▁이해해줄	-10955
▁인나니까	-10956
▁인사하구	-10957
▁일끝나면	-10958
▁일어나떠	-10959
▁일어나쏘	-10960
▁일어나용	-10961
▁일어난다	-10962
▁일어났다	-10963
▁일주일만	-10964
▁일하느라	-10965
▁일하는게	-10966
▁일하는데	-10967
▁잃어버렸	-10968
▁입었는데	-10969
▁있겠구나	-10970
▁있는건데	-10971
▁있어야돼	-10972
▁있어야지	-10973
▁있었는데	-10974
▁있었다구	-10975
▁있었던거	-10976
▁있었어요	-10977
▁있으면돼	-10978
▁있을건데	-10979
▁있을때는	-10980
▁자고시퍼	-10981
▁자고싶다	-10982
▁자고싶어	-10983
▁자기님은	-10984
▁자기보러	-10985
▁자기처럼	-10986
▁자기혼자	-10987
▁자동완성	-10988
▁자신한테	-10989
▁자야겠다	-10990
▁잘다녀오	-10991
▁잘먹을게	-10992
▁잘생겼네	-10993
▁잘하고있	-10994
▁잘하는데	-10995
▁잠복기일	-10996
▁잠시만용	-10997
▁잠시만유	-10998
▁잠이안와	-10999
▁재미없어	-11000
▁재밌겠다	-11001
▁잼게놀아	-11002
▁저나하셈	-11003
▁저나할래	-11004
▁저나해라	-11005
▁저나해유	-11006
▁저녁먹고	-11007
▁저녁먹구	-11008
▁저녁이나	-11009
▁저번에도	-11010
▁전수빈이	-11011
▁전화받고	-11012
▁전화줘요	-11013
▁전화하구	-11014
▁전화할까	-11015
▁전화할때	-11016
▁전화할래	-11017
▁전화해도	-11018
▁전화해용	-11019
▁점장님란	-11020
▁점장님은	-11021
▁정리하고	-11022
▁정민이랑	-11023
▁정시퇴근	-11024
▁정신머리	-11025
▁정신없어	-11026
▁정지현이	-11027
▁조아해서	-11028
▁종강하고	-11029
▁좋아지네	-11030
▁좋으니까	-11031
▁좌기좌기	-11032
▁주머니에	-11033
▁주민센터	-11034
▁주점에서	-11035
▁준비하규	-11036
▁준비할거	-11037
▁준엽이랑	-11038
▁준형이랑	-11039
▁지각해서	-11040
▁지금은요	-11041
▁지끈거려	-11042
▁지원이도	-11043
▁지하철탔	-11044
▁지현이랑	-11045
▁직장인은	-11046
▁질문할거	-11047
▁집가는데	-11048
▁집가는중	-11049
▁집도착해	-11050
▁집앞에서	-11051
▁집에가요	-11052
▁집에가용	-11053
▁집에가유	-11054
▁집에다가	-11055
▁집에있는	-11056
▁집이에용	-11057
▁짜증나네	-11058
▁짜증난다	-11059
▁찍어줄게	-11060
▁창업얘기	-11061
▁찾아간다	-11062
▁찾아보구	-11063
▁찾아봐유	-11064
▁찾아야지	-11065
▁채히한테	-11066
▁챙겨왔지	-11067
▁챙겨줘서	-11068
▁챙기라고	-11069
▁챙길게요	-11070
▁처리할게	-11071
▁처음으로	-11072
▁천천히왕	-11073
▁천천히해	-11074
▁천천히혀	-11075
▁출근인데	-11076
▁출근한대	-11077
▁출근해유	-11078
▁출발함둥	-11079
▁충무로역	-11080
▁충분해용	-11081
▁충전하고	-11082
▁친해보여	-11083
▁카카오톡	-11084
▁카톡보내	-11085
▁카톡안봐	-11086
▁카톡해죠	-11087
▁카페가요	-11088
▁카페에용	-11089
▁커밍아웃	-11090
▁컨디션은	-11091
▁케이크랑	-11092
▁코노갈까	-11093
▁태릉이다	-11094
▁토닥토닥	-11095
▁통화하고	-11096
▁통화하는	-11097
▁통화한거	-11098
▁통화했네	-11099
▁퇴근시켜	-11100
▁퇴근이네	-11101
▁퇴근이닷	-11102
▁퇴근이유	-11103
▁퇴근해요	-11104
▁퇴근해유	-11105
▁퇴근해쪄	-11106
▁투정부리	-11107
▁튀어나왔	-11108
▁틀어놓고	-11109
▁파인애플	-11110
▁편지라는	-11111
▁편한대류	-11112
▁포동포동	-11113
▁푸드트럭	-11114
▁풉키풉키	-11115
▁피방갈때	-11116
▁피시방에	-11117
▁피우는중	-11118
▁피하려고	-11119
▁필요한거	-11120
▁하고싶은	-11121
▁하구있닝	-11122
▁하기시러	-11123
▁하는거야	-11124
▁하는거지	-11125
▁하라그래	-11126
▁하려구요	-11127
▁하루죙일	-11128
▁하지말고	-11129
▁학교갈때	-11130
▁학교에서	-11131
▁한가해용	-11132
▁한다는게	-11133
▁한마디도	-11134
▁한번해보	-11135
▁한시간두	-11136
▁한시간뒤	-11137
▁한시간에	-11138
▁할머니랑	-11139
▁함박웃음	-11140
▁해동시켜	-11141
▁해먹을까	-11142
▁해버렸어	-11143
▁해야되네	-11144
▁핸드폰도	-11145
▁핸드폰은	-11146
▁헤어졌대	-11147
▁헤어졌어	-11148
▁헤어지고	-11149
▁현정맴이	-11150
▁현정이가	-11151
▁현지걸어	-11152
▁현지꺼야	-11153
▁현지랑은	-11154
▁현지보러	-11155
▁호출하시	-11156
▁홀리홀리	-11157
▁환갑잔치	-11158
▁환승연애	-11159
▁활동시작	-11160
▁홧팅해용	-11161
▁후드티만	-11162
▁훔쳐보기	-11163
▁휴가신청	-11164
▁흐규흐규	-11165
▁히히히히	-11166
▁힘내자구	-11167
▁힘들어서	-11168
▁힘들었어	-11169
▁힘들잖아	-11170
▁힘들텐데	-11171
가는거에요	-11172
교수님이랑	-11173
는거보니까	-11174
는거였구나	-11175
는중이에요	-11176
다녀올게요	-11177
도착입니당	-11178
려구했는데	-11179
분남았는데	-11180
분남았다리	-11181
분뒤에온대	-11182
사람들이랑	-11183
살까하다가	-11184
수있었는데	-11185
시간남아따	-11186
시까지여서	-11187
아니었으면	-11188
왔다고해서	-11189
점장님이랑	-11190
줄알았는데	-11191
파이어포도	-11192
하고있구나	-11193
하고있어서	-11194
하구있어용	-11195
하지말라고	-11196
한다고했어	-11197
한다그랴서	-11198
할수있겠다	-11199
=11478	-11200
▁tlsgu	-11201
▁ᄏᄏᄃᄏᄃ	-11202
▁ᄏᄏᄏᄏ왜	-11203
▁ᄏᄏᄏ기여	-11204
▁ᄏᄏᄏ어ᅢ	-11205
▁ᄏᄏ구래용	-11206
▁ᄏᄏ기여미	-11207
▁가겠습니다	-11208
▁가고있었어	-11209
▁가위바위보	-11210
▁가져가라구	-11211
▁가지고와서	-11212
▁갈거같아요	-11213
▁갈것같아요	-11214
▁갈아탔어요	-11215
▁강사님들이	-11216
▁강의끝나고	-11217
▁강의끝나면	-11218
▁강의실도착	-11219
▁같이가야지	-11220
▁같이가자구	-11221
▁개맛있겠다	-11222
▁개인적으로	-11223
▁거의다왔오	-11224
▁걱정말라구	-11225
▁걱정시켜서	-11226
▁걱정안하게	-11227
▁건대입구로	-11228
▁계란후라이	-11229
▁고민해보께	-11230
▁고생했다리	-11231
▁공부끝내고	-11232
▁공부안하구	-11233
▁공부중이얌	-11234
▁공부중이였	-11235
▁공부하고싶	-11236
▁공주님안기	-11237
▁괜찮습니다	-11238
▁괜찮아졌어	-11239
▁괜찮았는데	-11240
▁괜찮으니까	-11241
▁교수님미팅	-11242
▁교수님한테	-11243
▁그래야겠다	-11244
▁그런가보다	-11245
▁그런거같아	-11246
▁금방이구나	-11247
▁기다리고있	-11248
▁기죽지말고	-11249
▁꼰질러야지	-11250
▁끝나자마자	-11251
▁나가고있어	-11252
▁나가기전에	-11253
▁나가야겠다	-11254
▁나갈려구요	-11255
▁나폴레옹은	-11256
▁남자친구가	-11257
▁내려가는즁	-11258
▁내려간다고	-11259
▁냐미해야지	-11260
▁노래방가요	-11261
▁노래방에서	-11262
▁노래방왔어	-11263
▁노력하는데	-11264
▁노력해볼게	-11265
▁놀고싶으면	-11266
▁놀고있어요	-11267
▁누구랑하게	-11268
▁누워있을거	-11269
▁눈치보다가	-11270
▁늦게나와서	-11271
▁다녀올게잉	-11272
▁다녀와요잉	-11273
▁다다음주에	-11274
▁담배펴야지	-11275
▁담배피러감	-11276
▁담배필거야	-11277
▁담배필거양	-11278
▁담주스케줄	-11279
▁담피하면서	-11280
▁당연하다고	-11281
▁데리러갈까	-11282
▁도서관왔어	-11283
▁도착하는지	-11284
▁도착할때쯤	-11285
▁도착해썽ᄑ	-11286
▁도착했어유	-11287
▁도착했으유	-11288
▁돈코츠라멘	-11289
▁드갑니다잉	-11290
▁들어가는중	-11291
▁들어가려규	-11292
▁들어가야돼	-11293
▁들어가야지	-11294
▁들어간다잉	-11295
▁들어갈게유	-11296
▁들어갈준비	-11297
▁들어갔는데	-11298
▁마니먹어용	-11299
▁마무리하고	-11300
▁만나러가요	-11301
▁만날거같아	-11302
▁말해놓을게	-11303
▁맛있게먹오	-11304
▁맛있겠다아	-11305
▁맛있더라구	-11306
▁맞춰보라고	-11307
▁먹고싶다고	-11308
▁먹고싶어서	-11309
▁먹고싶어짐	-11310
▁먹고싶운거	-11311
▁먹고있어서	-11312
▁먹구싶어요	-11313
▁먹구싶은거	-11314
▁먹구있어요	-11315
▁먹기로했어	-11316
▁먹어볼게유	-11317
▁먹었나보네	-11318
▁먹을거냐고	-11319
▁먹을껀데요	-11320
▁못챙겨줘서	-11321
▁못했어ᅲᅲ	-11322
▁무슨뜻인지	-11323
▁무음이여서	-11324
▁뭐먹고싶어	-11325
▁뭐하고이써	-11326
▁뭐하는거야	-11327
▁뭐할꺼에요	-11328
▁미아리에서	-11329
▁미안하다고	-11330
▁미친고아님	-11331
▁미친놈마냥	-11332
▁바질베이글	-11333
▁밥먹고올게	-11334
▁밥먹고있어	-11335
▁밥먹고있었	-11336
▁밥먹는다고	-11337
▁배고프다며	-11338
▁배우나와소	-11339
▁백화점에서	-11340
▁보고시퍼서	-11341
▁보고시퍼요	-11342
▁보고싶구나	-11343
▁보고싶네요	-11344
▁보내달라고	-11345
▁보문이에요	-11346
▁부모님한테	-11347
▁불려나갔다	-11348
▁불만있으면	-11349
▁블루베리랑	-11350
▁빨래하러가	-11351
▁사다달라고	-11352
▁상상했는데	-11353
▁생각하는거	-11354
▁생각해보께	-11355
▁생각해줘서	-11356
▁수업끝나고	-11357
▁수업끝났어	-11358
▁수업듣는데	-11359
▁수업안하고	-11360
▁수학천재형	-11361
▁쉬러가셔서	-11362
▁쉴것같아요	-11363
▁스트레스받	-11364
▁스파이더맨	-11365
▁슬퍼하지마	-11366
▁시작합니다	-11367
▁신경쓰이게	-11368
▁신당이에요	-11369
▁싫어하는거	-11370
▁심심하구나	-11371
▁쓰레기버리	-11372
▁씻고올게용	-11373
▁씻고올게유	-11374
▁씻고올겡ᄑ	-11375
▁씻어야겠다	-11376
▁씻을거에요	-11377
▁아니아ᅵᄂ	-11378
▁아메리카노	-11379
▁아직이에용	-11380
▁아프지않게	-11381
▁안괴롭히고	-11382
▁안녕하세요	-11383
▁안들어와서	-11384
▁안암이에요	-11385
▁알겠슙니당	-11386
▁알겠습니당	-11387
▁알려주세용	-11388
▁애교부려도	-11389
▁애들만나서	-11390
▁양의영이랑	-11391
▁얘기중이야	-11392
▁얘기하느라	-11393
▁얘기하면서	-11394
▁얘기했어요	-11395
▁어머님이랑	-11396
▁어쩔수없지	-11397
▁언제끝나노	-11398
▁언제끝날지	-11399
▁언제쉬어요	-11400
▁얼른갈게유	-11401
▁엄마집왔어	-11402
▁엎드려자서	-11403
▁여자애들은	-11404
▁여자친구가	-11405
▁여자친구야	-11406
▁연구실간다	-11407
▁연구실들어	-11408
▁연구실와서	-11409
▁연구실이야	-11410
▁연락없어서	-11411
▁연락해줘용	-11412
▁열심히하네	-11413
▁예정입니다	-11414
▁오래걸리네	-11415
▁오랜만이네	-11416
▁오픈하느라	-11417
▁오픈하니까	-11418
▁옷갈아입고	-11419
▁웹툰보느라	-11420
▁응ᄏᄏᄏᄏ	-11421
▁응원해줘서	-11422
▁이따보자잉	-11423
▁이만오천원	-11424
▁이해하지만	-11425
▁이해한다고	-11426
▁인터넷으로	-11427
▁일어났어욥	-11428
▁일요일이라	-11429
▁일하구이써	-11430
▁일하구있지	-11431
▁있을거같아	-11432
▁자고있길래	-11433
▁자고있어서	-11434
▁자러갈게요	-11435
▁잘갔다오렴	-11436
▁잘못했는데	-11437
▁장유ᅥᄂ이	-11438
▁저나할거임	-11439
▁저나해도돼	-11440
▁전화주세요	-11441
▁전화하라고	-11442
▁전화해두돼	-11443
▁전화해줘요	-11444
▁전화해줘용	-11445
▁점장님한테	-11446
▁정신없어서	-11447
▁정신차리고	-11448
▁조심해서와	-11449
▁좋아하는거	-11450
▁죽을것같아	-11451
▁죽이고싶다	-11452
▁준비중이야	-11453
▁준비해야디	-11454
▁준비해야지	-11455
▁준비해야징	-11456
▁지가가겠대	-11457
▁지금봤어요	-11458
▁지하철까지	-11459
▁지하철인데	-11460
▁지하철탄다	-11461
▁지하철탔어	-11462
▁집들렸다가	-11463
▁집들어가서	-11464
▁챙겨먹어요	-11465
▁천천히와용	-11466
▁천천히해요	-11467
▁청소하느라	-11468
▁출구나와서	-11469
▁출발합니둥	-11470
▁충무로도착	-11471
▁칭구들이랑	-11472
▁코노왔어요	-11473
▁코노왔어용	-11474
▁퇴근이어서	-11475
▁퇴근이에용	-11476
▁퇴근합니다	-11477
▁티데이여서	-11478
▁파리바게트	-11479
▁편의점애서	-11480
▁프로젝트는	-11481
▁하겠습니다	-11482
▁하고싶은거	-11483
▁하얀색인줄	-11484
▁학교갔다가	-11485
▁헤어지기싫	-11486
▁화이팅이야	-11487
▁확인해볼게	-11488
▁후덜덜덜덜	-11489
▁휴식시간에	-11490
▁힘들겠지만	-11491
수도있으니께	-11492
야하는고아님	-11493
하고있을게요	-11494
▁Zzzzzz	-11495
▁ᄏᄏᄏᄏᄏ귀	-11496
▁ᄏᄏᄏᄏ그래	-11497
▁ᄏᄏᄏ고마워	-11498
▁ᄏᄏᄏ재밌게	-11499
▁가는중이에용	-11500
▁가는즁이에요	-11501
▁걱정하지마요	-11502
▁공부중이여서	-11503
▁공부하고있게	-11504
▁공부하고있오	-11505
▁공부할시간이	-11506
▁그래보이더라	-11507
▁나가야하는데	-11508
▁냉찜질이라도	-11509
▁너무너무너무	-11510
▁너하는거봐서	-11511
▁노래방왔어요	-11512
▁늦을거같아요	-11513
▁다녀올게요잉	-11514
▁담배같이피자	-11515
▁담배마려유ᅩ	-11516
▁담배피러간다	-11517
▁대학원간다고	-11518
▁데리러간다구	-11519
▁돌곶이역으로	-11520
▁돌아다니는중	-11521
▁들어가기존에	-11522
▁들어가려구요	-11523
▁들어갈게요오	-11524
▁들어갑니데이	-11525
▁들으러갑니다	-11526
▁만나기루해써	-11527
▁만나러가는즁	-11528
▁만이천원어치	-11529
▁맛있어보이는	-11530
▁맛있을거같아	-11531
▁매직바코드가	-11532
▁머먹고싶은데	-11533
▁먹고싶은걸루	-11534
▁먹으러왔어요	-11535
▁무음이야ᅲᅲ	-11536
▁무음인가보네	-11537
▁민정맴님이랑	-11538
▁밥먹고올게요	-11539
▁밥먹고있어서	-11540
▁밥먹으러간당	-11541
▁밥먹으러왔우	-11542
▁밥먹을꺼에요	-11543
▁버리러가는즁	-11544
▁번갈아가면서	-11545
▁보기로했어요	-11546
▁부담스러운게	-11547
▁생각해볼게요	-11548
▁속상해하지마	-11549
▁수업들어간다	-11550
▁쉬고있을게요	-11551
▁쉬는시간되면	-11552
▁쉬는시간임둥	-11553
▁스시쟁이에서	-11554
▁시간애매해서	-11555
▁약수역이에요	-11556
▁어머니집에서	-11557
▁엘가도착해서	-11558
▁여기까지할게	-11559
▁연구실도착스	-11560
▁연구실왔어요	-11561
▁유튜브보다가	-11562
▁일어났습니다	-11563
▁일요일이라서	-11564
▁있어야되는데	-11565
▁저나해야게따	-11566
▁조심해서와요	-11567
▁조아하는거네	-11568
▁좋아하시겠다	-11569
▁좋을거같아서	-11570
▁주물러주다가	-11571
▁지하철역까지	-11572
▁집도착했어요	-11573
▁집도착했어용	-11574
▁집으로갈게요	-11575
▁찾아봐야겠다	-11576
▁출발하려구용	-11577
▁출발합니다요	-11578
▁출발합니데이	-11579
▁카카오프렌즈	-11580
▁카페가고있어	-11581
▁편한대루해용	-11582
▁피시방왔어요	-11583
▁하려고했는데	-11584
▁학식먹으려고	-11585
▁핸드폰하면서	-11586
▁헤어질결심은	-11587
▁화장실가는척	-11588
▁화장실갔다가	-11589
▁회기도착해서	-11590
▁ᄏᄏᄏᄏᄏᄉᄇ	-11591
▁걱정시켜드려서	-11592
▁공부시작하려구	-11593
▁공부하고있으면	-11594
▁공부하구있지용	-11595
▁기다리고있었어	-11596
▁기다리구있을게	-11597
▁미아리도착해서	-11598
▁밥먹으러가는즁	-11599
▁소개시켜준다고	-11600
▁수업들어갑니다	-11601
▁수업들으러가요	-11602
▁쉬는시간아니야	-11603
▁쉬는시간이에요	-11604
▁연구실도착이욤	-11605
▁연구실도착해서	-11606
▁오래걸릴거같아	-11607
▁조심히들어가요	-11608
▁학교도착했어요	-11609
▁Sunshine	-11610
▁tlsguswl	-11611
▁zzzzzzzz	-11612
▁ᄏᄏᄐᄐᄏᄏᄏᄏ	-11613
▁공부하고있었어요	-11614
▁공부하고있을게요	-11615
▁밥먹으러가고있어	-11616
▁연구실도착했어요	-11617
▁ᄏᄏᄏᄏᄏ큐ᅲᅲᅲ	-11618
▁ᄏᄐᄏᄏᄏᄏᄏᄏᄏᄏ	-11619
▁ᄏᄐᄐᄏᄏᄏᄏᄏᄏᄏ	-11620
-28	-11621
045	-11622
628	-11623
879	-11624
`*)	-11625
oso	-11626
ᄅ어보	-11627
ᅡᄅᄋ	-11628
ᅡᄅ려	-11629
ᅧ씻고	-11630
ᅭᅦᄆ	-11631
ᅮ저기	-11632
ᅲ옆에	-11633
ᅵᄅ어	-11634
ᅵ대한	-11635
▁ᄄ치	-11636
▁ᅢ썽	-11637
▁갇혀	-11638
▁깊게	-11639
▁끈듯	-11640
▁낀다	-11641
▁낙엽	-11642
▁냅둬	-11643
▁능률	-11644
▁댜기	-11645
▁딴거	-11646
▁딴데	-11647
▁떙스	-11648
▁똘망	-11649
▁롯데	-11650
▁멈춰	-11651
▁뮝뮝	-11652
▁벽느	-11653
▁봉주	-11654
▁브이	-11655
▁뻔해	-11656
▁뽑아	-11657
▁뿅뿅	-11658
▁섞어	-11659
▁섞여	-11660
▁슉슉	-11661
▁썩소	-11662
▁쎈가	-11663
▁악뮤	-11664
▁옥수	-11665
▁옳대	-11666
▁옳아	-11667
▁욘락	-11668
▁욜로	-11669
▁을을	-11670
▁줬다	-11671
▁줬댜	-11672
▁쭈글	-11673
▁찹쌀	-11674
▁쳤대	-11675
▁캠프	-11676
▁킹리	-11677
▁킹정	-11678
▁킼킼	-11679
▁협박	-11680
▁훌라	-11681
▁훌륭	-11682
▁힌발	-11683
▁힣ᄒ	-11684
가시죠	-11685
가즈앗	-11686
갈꺼임	-11687
같지ᅲ	-11688
거장이	-11689
것보단	-11690
겠습돠	-11691
결제해	-11692
고갔지	-11693
고씻어	-11694
고이쏘	-11695
과사무	-11696
관번호	-11697
구리ᅥ	-11698
급받음	-11699
ᅥ노코	-11700
걸렸댜	-11701
구요잉	-11702
글와글	-11703
기치않	-11704
길바라	-11705
깨목숨	-11706
뀌고옴	-11707
끛나네	-11708
나랑은	-11709
나안오	-11710
나하래	-11711
냐먀냠	-11712
느와야	-11713
는길도	-11714
는느낌	-11715
다닐게	-11716
당님이	-11717
대기층	-11718
더녀써	-11719
데려가	-11720
데스까	-11721
도꾸며	-11722
되게굴	-11723
된느데	-11724
드럽고	-11725
드셨나	-11726
득시키	-11727
든얼굴	-11728
듣기에	-11729
듣지ᅲ	-11730
떠들오	-11731
떨리죠	-11732
려보기	-11733
려봐써	-11734
른세상	-11735
리겠니	-11736
리데스	-11737
리두기	-11738
리트임	-11739
릴곳이	-11740
릴줄아	-11741
마미집	-11742
마저도	-11743
만난데	-11744
만두네	-11745
만들기	-11746
맛있냐	-11747
먹ᄀᄒ	-11748
먼트를	-11749
멀아야	-11750
멋있냐	-11751
면되지	-11752
모드로	-11753
모마일	-11754
모습을	-11755
물너봐	-11756
바꿨네	-11757
바닥만	-11758
바탕에	-11759
바탕중	-11760
박감이	-11761
방구도	-11762
배인정	-11763
부려따	-11764
부턴데	-11765
분걸란	-11766
분도탁	-11767
분돼서	-11768
뻥치지	-11769
사야개	-11770
상태로	-11771
솔져스	-11772
쉐프의	-11773
슈도있	-11774
슬프지	-11775
시기억	-11776
시미야	-11777
시험을	-11778
신만이	-11779
싼고임	-11780
씨에소	-11781
아이덜	-11782
안구대	-11783
안다쳐	-11784
앗ᄋᄆ	-11785
았단다	-11786
앞쪽에	-11787
어두됑	-11788
어떠노	-11789
어떠니	-11790
어만져	-11791
어줄겡	-11792
얼탱이	-11793
엠아이	-11794
영화는	-11795
오마한	-11796
오배건	-11797
와썽요	-11798
운내가	-11799
▁Bb	-11800
▁Ma	-11801
▁Wh	-11802
▁ᅮᅳ	-11803
▁광대	-11804
▁굶김	-11805
▁뀨뀨	-11806
▁뀨잉	-11807
▁놔둔	-11808
▁띠발	-11809
▁런닝	-11810
▁런치	-11811
▁묻을	-11812
▁밉다	-11813
▁붕떴	-11814
▁붕붕	-11815
▁삐빅	-11816
▁셋다	-11817
▁셋이	-11818
▁염치	-11819
▁웨얺	-11820
▁짬질	-11821
▁쯤에	-11822
▁찐종	-11823
▁콜드	-11824
▁콜미	-11825
▁털갈	-11826
▁톼굼	-11827
▁트릭	-11828
갑니가	-11829
결같네	-11830
누ᅡᄋ	-11831
맊ᄉᄑ	-11832
울거다	-11833
움직여	-11834
으셔야	-11835
은말만	-11836
음말해	-11837
의깊게	-11838
이ᅭ고	-11839
이상해	-11840
이없엉	-11841
이었누	-11842
이에욥	-11843
이있었	-11844
이틀로	-11845
이하심	-11846
익쒸익	-11847
인것듀	-11848
인났니	-11849
일때가	-11850
입군데	-11851
자ᅡᄌ	-11852
자ᅡ자	-11853
자래써	-11854
자래쓔	-11855
자료랑	-11856
자어어	-11857
잘해ᅭ	-11858
잡혀서	-11859
장있고	-11860
재형둘	-11861
저래라	-11862
적질문	-11863
전같지	-11864
전과는	-11865
점받음	-11866
정고장	-11867
조사가	-11868
좋겠내	-11869
주셨메	-11870
주셨오	-11871
줄슈도	-11872
줄아셈	-11873
지폈어	-11874
직찍구	-11875
짜린데	-11876
차장은	-11877
처넌도	-11878
치는법	-11879
켜쥰대	-11880
코스테	-11881
콘서트	-11882
탔음ᅲ	-11883
토져따	-11884
트랩에	-11885
파구리	-11886
폈어므	-11887
포인트	-11888
하더가	-11889
하던곳	-11890
하던디	-11891
한번더	-11892
한판만	-11893
해놔라	-11894
해여지	-11895
해줬네	-11896
해줬넹	-11897
해쥬까	-11898
해쥰대	-11899
/37	-11900
127	-11901
anj	-11902
▁벽에	-11903
회생활	-11904
힘드로	-11905
0453	-11906
2294	-11907
8704	-11908
8798	-11909
9228	-11910
9423	-11911
Good	-11912
anji	-11913
hduc	-11914
ᄇᄋ했어	-11915
ᄋᄅ꺼야	-11916
ᄒᄅᄒᄅ	-11917
ᅡᅡᅡᅡ	-11918
ᅮ먹었어	-11919
ᅮ일어났	-11920
ᅮ전화는	-11921
▁3-4	-11922
▁363	-11923
▁4-5	-11924
▁Eas	-11925
▁Shi	-11926
▁Whg	-11927
▁Win	-11928
▁dau	-11929
▁off	-11930
▁ran	-11931
▁tns	-11932
▁ᄋᄃ임	-11933
▁ᄋ응ᄋ	-11934
▁ᄌ됐다	-11935
▁ᅮᅲᅲ	-11936
▁가관임	-11937
▁가을을	-11938
▁가즈앗	-11939
▁갇혀서	-11940
▁갈건대	-11941
▁갈꾸마	-11942
▁갑니돵	-11943
▁갖다줘	-11944
▁개기월	-11945
▁개늦게	-11946
▁개많았	-11947
▁개발림	-11948
▁개시원	-11949
▁갱장히	-11950
▁거였네	-11951
▁걸린게	-11952
▁결론이	-11953
▁겹치면	-11954
▁경험이	-11955
▁계단쪽	-11956
▁계셔요	-11957
▁고개만	-11958
▁고급져	-11959
▁고른거	-11960
▁고소해	-11961
▁고양이	-11962
▁고프다	-11963
▁곱창막	-11964
▁공유해	-11965
▁공짜밥	-11966
▁공짜야	-11967
▁과잠있	-11968
▁관상은	-11969
▁광대들	-11970
▁교회다	-11971
▁굥부중	-11972
▁구러면	-11973
▁군대유	-11974
▁귀찬타	-11975
▁그니깡	-11976
▁그여자	-11977
▁그정돈	-11978
▁글애도	-11979
▁긁혔어	-11980
▁급한고	-11981
▁긔타나	-11982
▁기기기	-11983
▁기도를	-11984
▁기둘기	-11985
▁기둘려	-11986
▁기름진	-11987
▁기모찡	-11988
▁기본빵	-11989
▁기본이	-11990
▁기뻤어	-11991
▁기숙사	-11992
▁기업들	-11993
▁기업은	-11994
▁기엽넹	-11995
▁김동민	-11996
▁깔아야	-11997
▁깔았대	-11998
▁깜딱놀	-11999
▁Ne	-12000
▁껌빠뉴	-12001
▁껴안아	-12002
▁꽂아버	-12003
▁꾸미는	-12004
▁꿈꿔ᅥ	-12005
▁꿑났넹	-12006
▁꿔바로	-12007
▁끊었엌	-12008
▁끌어안	-12009
▁끝낚어	-12010
▁끝낚오	-12011
▁끝낚으	-12012
▁끝난대	-12013
▁끝난댕	-12014
▁나ᅡᄂ	-12015
▁나더착	-12016
▁나빴으	-12017
▁나왓다	-12018
▁날거먹	-12019
▁남해바	-12020
▁내렸삼	-12021
▁내령ᄑ	-12022
▁내모습	-12023
▁내용을	-12024
▁내이름	-12025
▁낼름낼	-12026
▁낼부턴	-12027
▁냐미중	-12028
▁너희집	-12029
▁네개씩	-12030
▁네여보	-12031
▁노가다	-12032
▁노이즈	-12033
▁녹화때	-12034
▁논다며	-12035
▁놀거다	-12036
▁놀려주	-12037
▁놀았냐	-12038
▁놓치넹	-12039
▁놔둔거	-12040
▁누군뎅	-12041
▁누군지	-12042
▁누규야	-12043
▁늘어났	-12044
▁늦춰도	-12045
▁니나처	-12046
▁다목구	-12047
▁다알지	-12048
▁다피고	-12049
▁다희년	-12050
▁단추여	-12051
▁닫아야	-12052
▁달곳이	-12053
▁담넘어	-12054
▁당당당	-12055
▁당황스	-12056
▁대지각	-12057
▁더러러	-12058
▁더러어	-12059
▁더울까	-12060
▁더워요	-12061
▁더있고	-12062
▁데러리	-12063
▁도둑이	-12064
▁도와달	-12065
▁돈아까	-12066
▁되겄다	-12067
▁되겠당	-12068
▁되면돼	-12069
▁될듯용	-12070
▁될듯유	-12071
▁됩니다	-12072
▁두산가	-12073
▁드려써	-12074
▁드론드	-12075
▁들여보	-12076
▁들켜서	-12077
▁등산중	-12078
▁디질뻔	-12079
▁따가운	-12080
▁따가워	-12081
▁딴데가	-12082
▁때울게	-12083
▁땡기자	-12084
▁떡볶에	-12085
▁뜯은겨	-12086
▁띠껍군	-12087
▁랍니다	-12088
▁런치래	-12089
▁로맨티	-12090
▁로션바	-12091
▁로운이	-12092
▁리뷰이	-12093
▁마ᅵᄂ	-12094
▁마르고	-12095
▁만사가	-12096
▁말하려	-12097
▁맑더라	-12098
▁맘껏써	-12099
▁쉐프	-12100
▁맘편히	-12101
▁맛없을	-12102
▁맞는말	-12103
▁머르지	-12104
▁머하심	-12105
▁먹ᄀᄒ	-12106
▁멋져뒤	-12107
▁메트랩	-12108
▁멜론도	-12109
▁명상중	-12110
▁명절에	-12111
▁몰아봄	-12112
▁못듣지	-12113
▁못버틸	-12114
▁못부름	-12115
▁못이기	-12116
▁무너짐	-12117
▁무뼈로	-12118
▁무죄지	-12119
▁무지개	-12120
▁문열어	-12121
▁문열여	-12122
▁묻잖아	-12123
▁뭐샀어	-12124
▁뭐였지	-12125
▁미뚱효	-12126
▁미련한	-12127
▁미완성	-12128
▁민폐끼	-12129
▁민폐노	-12130
▁민폐덩	-12131
▁밉다는	-12132
▁밍밍한	-12133
▁바껴요	-12134
▁바꿀까	-12135
▁바꿨네	-12136
▁바부바	-12137
▁박박박	-12138
▁박살남	-12139
▁반만뜨	-12140
▁반죽여	-12141
▁발바닥	-12142
▁밥두잘	-12143
▁방법이	-12144
▁방학때	-12145
▁방학이	-12146
▁배려가	-12147
▁백수다	-12148
▁번지지	-12149
▁베여써	-12150
▁병신같	-12151
▁병신이	-12152
▁보냉팩	-12153
▁보냐주	-12154
▁보려는	-12155
▁보로감	-12156
▁보셔쓔	-12157
▁복수할	-12158
▁볼꺼다	-12159
▁볼떨리	-12160
▁부서진	-12161
▁부탁중	-12162
▁불가다	-12163
▁붙일게	-12164
▁블랙홀	-12165
▁비어킹	-12166
▁빌릴거	-12167
▁빠졌나	-12168
▁빨간건	-12169
▁빨간고	-12170
▁빨간날	-12171
▁빵목오	-12172
▁뻘뻘흘	-12173
▁뻘쭘스	-12174
▁뼈맞음	-12175
▁뿌시기	-12176
▁삐졌음	-12177
▁사귄건	-12178
▁사귄고	-12179
▁사망설	-12180
▁사미라	-12181
▁사오기	-12182
▁사이에	-12183
▁사전예	-12184
▁사탕사	-12185
▁살려둬	-12186
▁살아났	-12187
▁생긴게	-12188
▁생린가	-12189
▁생활한	-12190
▁서있너	-12191
▁석상해	-12192
▁설레게	-12193
▁성공하	-12194
▁성장은	-12195
▁섹시함	-12196
▁손석희	-12197
▁수ᅡ러	-12198
▁수슈슉	-12199
▁순찌도	-12200
▁쉅중일	-12201
▁쉑쉑도	-12202
▁쉬었엉	-12203
▁시도조	-12204
▁시른데	-12205
▁신입생	-12206
▁싫은티	-12207
▁심보야	-12208
▁십센치	-12209
▁싶었늠	-12210
▁싸우게	-12211
▁싹싹비	-12212
▁싹싹빌	-12213
▁썼어요	-12214
▁쐬다가	-12215
▁쓰시니	-12216
▁씨발련	-12217
▁씻으께	-12218
▁아ᅡᄂ	-12219
▁아껴쓰	-12220
▁아시죠	-12221
▁아좌아	-12222
▁아팠어	-12223
▁아푸다	-12224
▁아플걸	-12225
▁악뮤노	-12226
▁안끄고	-12227
▁안끊었	-12228
▁안드시	-12229
▁안듣니	-12230
▁안떠디	-12231
▁안떠서	-12232
▁안떨어	-12233
▁안바꾸	-12234
▁안바쁜	-12235
▁안비워	-12236
▁안심할	-12237
▁안차려	-12238
▁안추워	-12239
▁안켜도	-12240
▁안혼낸	-12241
▁애긔야	-12242
▁애긴데	-12243
▁야돈은	-12244
▁얄밉게	-12245
▁양식은	-12246
▁양영은	-12247
▁어엄청	-12248
▁어째서	-12249
▁언느와	-12250
▁언재쯤	-12251
▁없나봥	-12252
▁여깄냐	-12253
▁여깄지	-12254
▁역겹다	-12255
▁연장해	-12256
▁열공혀	-12257
▁열받구	-12258
▁영업에	-12259
▁예란이	-12260
▁예뻤어	-12261
▁예의도	-12262
▁오글거	-12263
▁오셨당	-12264
▁오캐이	-12265
▁올렸오	-12266
▁올리기	-12267
▁옮겨담	-12268
▁옮기기	-12269
▁옼ᄋᄋ	-12270
▁와써우	-12271
▁와이셔	-12272
▁와인ᄒ	-12273
▁왔구요	-12274
▁왕복만	-12275
▁왜안보	-12276
▁왜지랄	-12277
▁요놈아	-12278
▁욕심을	-12279
▁욘구실	-12280
▁욜로지	-12281
▁운전을	-12282
▁울릴거	-12283
▁울마미	-12284
▁울보야	-12285
▁웅나두	-12286
▁웅나듀	-12287
▁웅안아	-12288
▁웅얼웅	-12289
▁원치않	-12290
▁위로도	-12291
▁위로해	-12292
▁윙크는	-12293
▁유형은	-12294
▁윤하도	-12295
▁으음으	-12296
▁으이그	-12297
▁은근히	-12298
▁이고봐	-12299
▁싄당	-12300
김치도	-12301
숩들오	-12302
올려따	-12303
▁가르쳐	-12304
▁못버티	-12305
▁빡세긴	-12306
▁사갈깡	-12307
▁사용자	-12308
▁상태야	-12309
▁선배가	-12310
▁솔플로	-12311
▁쇼핑백	-12312
▁쇼핑이	-12313
▁숩들오	-12314
▁시벌놈	-12315
▁싶다했	-12316
▁안경쓰	-12317
▁안된데	-12318
▁안자도	-12319
▁안정했	-12320
▁알라ᅡ	-12321
▁알라뵹	-12322
▁약통에	-12323
▁양보래	-12324
▁에이씨	-12325
▁에이징	-12326
▁에이플	-12327
▁예의상	-12328
▁와두됑	-12329
▁왜그로	-12330
▁웃기지	-12331
▁은행가	-12332
▁이기죠	-12333
▁이놈들	-12334
▁이래도	-12335
▁이래라	-12336
▁이마를	-12337
▁이말투	-12338
▁이모습	-12339
▁이모차	-12340
▁이쁘다	-12341
▁이시다	-12342
▁이시발	-12343
▁인상씀	-12344
▁인정따	-12345
▁일곱시	-12346
▁일정짜	-12347
▁입었엉	-12348
▁있ᄋᄆ	-12349
▁있게용	-12350
▁있눈뎅	-12351
▁있응ᄑ	-12352
▁있지이	-12353
▁자극적	-12354
▁자동문	-12355
▁잔뜩옴	-12356
▁잘때가	-12357
▁잘라서	-12358
▁잘만들	-12359
▁잘샀음	-12360
▁장인이	-12361
▁재워준	-12362
▁쟤네도	-12363
▁저때로	-12364
▁저럴까	-12365
▁저장해	-12366
▁적극적	-12367
▁전염성	-12368
▁정답만	-12369
▁정시터	-12370
▁정해진	-12371
▁정확한	-12372
▁정확했	-12373
▁조급해	-12374
▁조나안	-12375
▁조립즁	-12376
▁조절하	-12377
▁졸리다	-12378
▁좆되게	-12379
▁좆빡침	-12380
▁좋겠음	-12381
▁좋대용	-12382
▁주겅어	-12383
▁주글래	-12384
▁죽을뻔	-12385
▁죽탱이	-12386
▁준다느	-12387
▁중랑천	-12388
▁중화동	-12389
▁중화음	-12390
▁지랄임	-12391
▁지점이	-12392
▁지점장	-12393
▁진상부	-12394
▁진상짓	-12395
▁진정중	-12396
▁질식사	-12397
▁집더착	-12398
▁집앞임	-12399
ᄋ후랑	-12400
기힘들	-12401
눌렀어	-12402
담핀거	-12403
해따고	-12404
현지랑	-12405
▁272	-12406
▁new	-12407
▁ᄆᄎᄂ	-12408
▁ᄆᄎᄆ	-12409
▁개열뻗	-12410
▁공감대	-12411
▁괴물공	-12412
▁교슈는	-12413
▁귱금해	-12414
▁그쳤네	-12415
▁기회도	-12416
▁나서네	-12417
▁농구장	-12418
▁느꼈던	-12419
▁느꼈을	-12420
▁다해따	-12421
▁다했니	-12422
▁단수래	-12423
▁대화를	-12424
▁뒤돌아	-12425
▁레츠꼬	-12426
▁만난지	-12427
▁머선일	-12428
▁모두가	-12429
▁모두의	-12430
▁모든게	-12431
▁못씻어	-12432
▁바꼈네	-12433
▁바꼈넹	-12434
▁바꼈어	-12435
▁반쯤에	-12436
▁방해안	-12437
▁보게돼	-12438
▁보기루	-12439
▁짧게만	-12440
▁짧았다	-12441
▁짱깨들	-12442
▁쪽쪽쪽	-12443
▁쪽쪽찌	-12444
▁쯤에ᅲ	-12445
▁찐종강	-12446
▁차감할	-12447
▁차장은	-12448
▁착하셔	-12449
▁참을만	-12450
▁창고에	-12451
▁창훈이	-12452
▁책상에	-12453
▁책상위	-12454
▁체크인	-12455
▁쳐다봐	-12456
▁쳐맞기	-12457
▁초대박	-12458
▁최곤데	-12459
▁최대한	-12460
▁최선을	-12461
▁최소금	-12462
▁추천서	-12463
▁축축한	-12464
▁출석체	-12465
▁취급해	-12466
▁코골이	-12467
▁콜드브	-12468
▁큰문제	-12469
▁키링만	-12470
▁키스해	-12471
▁키슨데	-12472
▁탄력이	-12473
▁탈론도	-12474
▁탈주사	-12475
▁탓이야	-12476
▁터질뻔	-12477
▁테이번	-12478
▁토나올	-12479
▁토론중	-12480
▁토일월	-12481
▁트릭이	-12482
▁티낼까	-12483
▁파산일	-12484
▁패딩도	-12485
▁팬티바	-12486
▁펼쳐서	-12487
▁평생볼	-12488
▁포스에	-12489
▁포토샵	-12490
▁폭우는	-12491
▁푸딩도	-12492
▁피러감	-12493
▁피로해	-12494
▁피피엘	-12495
▁필수지	-12496
▁하겠냐	-12497
▁하아유	-12498
▁학기에	-12499
ᅥ장실	-12500
▁뀨꾸	-12501
갔자노	-12502
강파티	-12503
귀엽지	-12504
당할뻔	-12505
시였나	-12506
알바냐	-12507
알바랬	-12508
어니지	-12509
얼른끝	-12510
은가봥	-12511
일인뎅	-12512
있으니	-12513
조기수	-12514
찍하오	-12515
켜있노	-12516
핀다면	-12517
▁고정이	-12518
▁나에게	-12519
▁늦진않	-12520
▁다알아	-12521
▁다일러	-12522
▁다있노	-12523
▁다쳤어	-12524
▁데이트	-12525
▁맘편하	-12526
▁붙잡고	-12527
▁붙잡아	-12528
▁비와소	-12529
▁손잡고	-12530
▁슬픈데	-12531
▁싫은가	-12532
▁안핀다	-12533
▁요자식	-12534
▁이판만	-12535
▁집왔엉	-12536
▁첫출근	-12537
▁컨테이	-12538
▁코웃음	-12539
▁파란색	-12540
▁표정이	-12541
▁핀다면	-12542
▁학부연	-12543
▁한글설	-12544
▁한두판	-12545
▁한봉지	-12546
▁할꺼임	-12547
▁할말만	-12548
▁합격함	-12549
▁핫팩만	-12550
▁해두되	-12551
▁해봤지	-12552
▁해줬나	-12553
▁해피오	-12554
▁햇반돌	-12555
▁햇빛이	-12556
▁했짜나	-12557
▁허리도	-12558
▁헉ᄀᄀ	-12559
▁헐ᄅᄅ	-12560
▁현디는	-12561
▁혼날래	-12562
▁화가나	-12563
▁화안냈	-12564
▁화욜은	-12565
▁화풀이	-12566
▁홧김에	-12567
▁황예찬	-12568
▁회사에	-12569
▁회색은	-12570
▁회식때	-12571
▁효자야	-12572
▁후배가	-12573
▁후자로	-12574
▁훌라훌	-12575
▁휴게실	-12576
▁흰색임	-12577
▁힌발늦	-12578
가나ᅲᅲ	-12579
가지없음	-12580
갈기면서	-12581
갈꺼같아	-12582
같을까봐	-12583
건가뷰네	-12584
걸렸었어	-12585
검사하면	-12586
것두업슈	-12587
것마저도	-12588
게먹어유	-12589
겠는데요	-12590
겨유ᅥᄊ	-12591
결제해놓	-12592
고갔구나	-12593
고같아유	-12594
고있대요	-12595
곱창이나	-12596
공기먹어	-12597
과사무실	-12598
구아니지	-12599
더릴까	-12600
드릴까	-12601
리셨네	-12602
멘부리	-12603
못해소	-12604
뭔상관	-12605
미워죽	-12606
보냈다	-12607
봐야제	-12608
부베베	-12609
빠르누	-12610
뿌니야	-12611
쓰구갔	-12612
아닌가	-12613
아주게	-12614
아주기	-12615
아주까	-12616
알바야	-12617
오시라	-12618
접수는	-12619
주시면	-12620
할수록	-12621
▁가본다	-12622
▁가셨네	-12623
▁까머금	-12624
▁너미워	-12625
▁도라힌	-12626
▁래미안	-12627
▁보시라	-12628
▁부베베	-12629
▁부실까	-12630
▁안머금	-12631
▁안약도	-12632
▁왕마싯	-12633
▁이뿌니	-12634
▁잘쓰구	-12635
▁첨목어	-12636
▁터미널	-12637
구역이다	-12638
구있는곳	-12639
기간이라	-12640
까운내가	-12641
까지ᅡᄂ	-12642
끼데스까	-12643
낀끼는중	-12644
나하랴구	-12645
날만하다	-12646
남자친구	-12647
내려갔어	-12648
냐옵니다	-12649
넘어ᅭᅥ	-12650
녀오라고	-12651
년생이요	-12652
놓은거야	-12653
눈다는거	-12654
는걸수도	-12655
는날이야	-12656
는다해소	-12657
다구랴서	-12658
다그랴서	-12659
다먹었엉	-12660
대안구대	-12661
댕기면서	-12662
도꾸며도	-12663
도착이노	-12664
도하니께	-12665
도했겠다	-12666
돌리는중	-12667
동민이는	-12668
되고나서	-12669
되있으니	-12670
두드리고	-12671
들오왔어	-12672
듬어주고	-12673
떡볶이에	-12674
똘망하군	-12675
라먹으래	-12676
라앉았어	-12677
라졌는데	-12678
라즈베리	-12679
라했는디	-12680
럭시여서	-12681
럼들이네	-12682
레베이터	-12683
로할게유	-12684
르는척해	-12685
리바리까	-12686
리베이터	-12687
릴줄아러	-12688
립이한테	-12689
마오마한	-12690
만날거야	-12691
만원짜리	-12692
말이엉ᄑ	-12693
말해주게	-12694
말했거든	-12695
맘대로해	-12696
먹어보는	-12697
먹어봐써	-12698
먹엉ᄉᄋ	-12699
ᄅ롬들	-12700
강의니	-12701
거운노	-12702
그런감	-12703
까먹게	-12704
남겨요	-12705
남았네	-12706
남았따	-12707
놓으렴	-12708
놓으묜	-12709
도안봄	-12710
동집왔	-12711
드러써	-12712
라이즈	-12713
러워도	-12714
러워질	-12715
리게쓰	-12716
분도척	-12717
사드실	-12718
쓸거면	-12719
온김에	-12720
은걸루	-12721
ᄅ롬들아	-12722
▁ᄌ같은	-12723
▁개귀여	-12724
▁그르면	-12725
▁나간닷	-12726
▁남긴다	-12727
▁내놓으	-12728
▁놀란다	-12729
▁드럽지	-12730
▁딱될듯	-12731
▁레몬간	-12732
▁무거운	-12733
▁보라해	-12734
▁술김에	-12735
▁쓸거래	-12736
▁앞두고	-12737
▁으디야	-12738
▁이걸루	-12739
▁이채히	-12740
▁일도안	-12741
▁지리지	-12742
▁향수뿌	-12743
▁허리에	-12744
▁회덮밥	-12745
▁후리스	-12746
거운노밍	-12747
걸리랴고	-12748
계인보쟈	-12749
남았어요	-12750
놨어야지	-12751
달남았따	-12752
도안하게	-12753
먹울거임	-12754
먹을고양	-12755
먹을텐디	-12756
먼트인가	-12757
물ᄅ어보	-12758
미워죽겠	-12759
받는느낌	-12760
받으라고	-12761
버리게쓰	-12762
버릴게요	-12763
번출구쪽	-12764
보내줘랏	-12765
보는규나	-12766
보리게쓰	-12767
보이나봐	-12768
부만들기	-12769
분컷한듯	-12770
붐정도에	-12771
비스센터	-12772
빗소리도	-12773
빠는고야	-12774
사다준대	-12775
사야개띠	-12776
사회생활	-12777
살아야지	-12778
상관이야	-12779
상있는곳	-12780
생일인뎅	-12781
샤합니당	-12782
서보인다	-12783
세네ᅲᅲ	-12784
소리도안	-12785
수있대ᅲ	-12786
슈슈규ᅮ	-12787
슉슉슈슉	-12788
슬프다고	-12789
시까진가	-12790
시까진데	-12791
시까진디	-12792
시반출근	-12793
시정도로	-12794
실거니꺼	-12795
심같아서	-12796
씩먹으래	-12797
아놨는데	-12798
아무것도	-12799
ARv	-12800
hod	-12801
rob	-12802
▁AA	-12803
▁Yo	-12804
▁dk	-12805
▁ke	-12806
▁ok	-12807
▁pc	-12808
▁tm	-12809
▁갱미	-12810
▁갱생	-12811
▁견딜	-12812
▁규랭	-12813
▁긁지	-12814
▁껐다	-12815
▁널랐	-12816
▁녹이	-12817
▁닮았	-12818
▁뺏어	-12819
▁죠바	-12820
▁짤려	-12821
▁탐스	-12822
▁탑승	-12823
▁털어	-12824
▁폭력	-12825
▁헌팅	-12826
▁흘러	-12827
▁흘리	-12828
▁😄😄	-12829
가ᅧᄂ	-12830
번보단	-12831
베베베	-12832
ARvu	-12833
hodh	-12834
▁You	-12835
▁kee	-12836
▁pcr	-12837
▁tmi	-12838
▁갱미네	-12839
▁견딜만	-12840
▁긁지마	-12841
▁껐는데	-12842
▁껐는디	-12843
▁껐다켰	-12844
▁널랐음	-12845
▁닮아서	-12846
▁닮았네	-12847
▁대가리	-12848
▁뺏는데	-12849
▁뺏어서	-12850
▁여친이	-12851
▁왓어요	-12852
▁점수로	-12853
▁중임둥	-12854
▁짤려라	-12855
▁탑마트	-12856
▁폭력적	-12857
▁흘러갈	-12858
▁흘려서	-12859
붸베베베	-12860
아아ᅡᄋ	-12861
아아아앗	-12862
아오아아	-12863
아이덜가	-12864
안되냐고	-12865
안되네용	-12866
안하던데	-12867
않다면서	-12868
알렸더니	-12869
압박감이	-12870
야한데서	-12871
어이털려	-12872
없을줄알	-12873
었으ᅧᄂ	-12874
에있는다	-12875
연락할게	-12876
연스럽게	-12877
오강ᄉᄋ	-12878
오빠쟈기	-12879
오시라요	-12880
오처넌도	-12881
올렸는데	-12882
와야겠따	-12883
욜로하장	-12884
우리애기	-12885
워줄거야	-12886
원한테도	-12887
유ᅥᄊ삼	-12888
으려궁ᄉ	-12889
으로해줭	-12890
으셔야죠	-12891
으셨으면	-12892
은길이야	-12893
을정도요	-12894
이긴하네	-12895
이나하까	-12896
이랄까나	-12897
인것같네	-12898
인이냐고	-12899
넷플로	-12900
▁꿑났슈	-12901
▁넷플로	-12902
인줄아니	-12903
일어났다	-12904
있거시퍼	-12905
있는중임	-12906
자ᅡ자잦	-12907
자고있납	-12908
자어어즈	-12909
잘못보냄	-12910
잘못이지	-12911
잘해ᅭ오	-12912
잠자는중	-12913
장고위에	-12914
장하는즁	-12915
점짜린데	-12916
제해두대	-12917
조기수료	-12918
좀보다가	-12919
주고있오	-12920
주기싫음	-12921
주문하자	-12922
줄아라써	-12923
줄알았대	-12924
진않았어	-12925
질것같네	-12926
찍었다고	-12927
찾아봤지	-12928
철판볶음	-12929
촌재형둘	-12930
축하해요	-12931
축하해용	-12932
출근인디	-12933
츄ᅥ노코	-12934
치는건줄	-12935
치는법도	-12936
치보면서	-12937
커플처럼	-12938
콘서트는	-12939
타임에서	-12940
타임이야	-12941
퇴군예정	-12942
트였구나	-12943
팔이한테	-12944
폈어므ᅳ	-12945
푸짐하네	-12946
하거있어	-12947
하라는갸	-12948
하려더거	-12949
하오는데	-12950
하지말자	-12951
하진않았	-12952
한번할래	-12953
한줄알고	-12954
할것같어	-12955
할때목오	-12956
해두돼요	-12957
해라임마	-12958
해버렸지	-12959
해볼까용	-12960
해야겠더	-12961
해주겄어	-12962
해주고일	-12963
해주신데	-12964
해죽겠네	-12965
해지잖아	-12966
했을까봐	-12967
햐버렸지	-12968
화장실가	-12969
힐뻔해서	-12970
12628	-12971
52294	-12972
8704&	-12973
88798	-12974
9423&	-12975
=1148	-12976
hduck	-12977
hodho	-12978
ᄋ으려구요	-12979
ᅡᄅ려줘용	-12980
ᅮᅮᅮᅮᅮ	-12981
▁2-30	-12982
▁2022	-12983
▁2727	-12984
▁3-11	-12985
▁3~40	-12986
▁4-50	-12987
▁Good	-12988
▁Shit	-12989
▁Soso	-12990
▁keep	-12991
▁prob	-12992
▁ᄀᄀᄀᄀ	-12993
▁ᄋᄋ맞음	-12994
▁ᄌᄂ귀여	-12995
▁ᄌᄂ웃김	-12996
▁ᄏᄏ귀욤	-12997
▁ᄏᄏ너랑	-12998
▁ᄏᄏ미안	-12999
막하더	-13000
버될듯	-13001
▁보이낭	-13002
▁안계시	-13003
▁함박스	-13004
림해쥰대	-13005
뻔했지만	-13006
얼굴아님	-13007
▁ᄏᄏ쉬고	-13008
▁ᄏᄏ어이	-13009
▁가까이선	-13010
▁가는고지	-13011
▁가는군요	-13012
▁가면되나	-13013
▁가버렸네	-13014
▁가보라해	-13015
▁가야겠넹	-13016
▁가자꾸나	-13017
▁가족식사	-13018
▁각오해라	-13019
▁간거까진	-13020
▁갈아입어	-13021
▁갈아입었	-13022
▁감정이입	-13023
▁갔나보군	-13024
▁갔더와소	-13025
▁강사님들	-13026
▁강아지가	-13027
▁같이봐여	-13028
▁개강파티	-13029
▁개기월식	-13030
▁개못생긴	-13031
▁개빡신디	-13032
▁개시원함	-13033
▁개웃기냐	-13034
▁개취해서	-13035
▁개취했지	-13036
▁거기있나	-13037
▁거리두기	-13038
▁거생해또	-13039
▁검은바지	-13040
▁것같아요	-13041
▁것입니까	-13042
▁겨울바다	-13043
▁결과아직	-13044
▁결제하면	-13045
▁경사났네	-13046
▁고구마먹	-13047
▁고단수임	-13048
▁고럼느낌	-13049
▁고민되넹	-13050
▁고집부리	-13051
▁고프다해	-13052
▁곤란하다	-13053
▁곧이구만	-13054
▁곰돌이로	-13055
▁공부나해	-13056
▁과일살까	-13057
▁과일파티	-13058
▁괜찮으셔	-13059
▁괜찮은겨	-13060
▁교회다와	-13061
▁교회에서	-13062
▁굴리느라	-13063
▁궁금해죽	-13064
▁귱금해거	-13065
▁그게모야	-13066
▁그게무야	-13067
▁그래ᅲᅮ	-13068
▁그랴그래	-13069
▁그러실까	-13070
▁그런연락	-13071
▁그럴게용	-13072
▁그럴까요	-13073
▁그럴바엔	-13074
▁그렇지얺	-13075
▁그림체가	-13076
▁그만서고	-13077
▁그쪽가서	-13078
▁그쪽이랴	-13079
▁금바이야	-13080
▁금방상해	-13081
▁급식같아	-13082
▁급정거면	-13083
▁급한고는	-13084
▁급한일이	-13085
▁기도해줘	-13086
▁기본이죠	-13087
▁기분나쁘	-13088
▁기분풀림	-13089
▁기쁜소식	-13090
▁기숙사에	-13091
▁기엽다고	-13092
▁기침나오	-13093
▁깔려있나	-13094
▁깜빡하고	-13095
▁깜빡했다	-13096
▁껐더라고	-13097
▁꼭대기층	-13098
▁꽂아버리	-13099
▁\\	-13100
▁\\\	-13101
▁내령ᄉ	-13102
▁뜯으실	-13103
▁삼십분	-13104
▁환불을	-13105
▁힘든고	-13106
가려고용	-13107
글와글와	-13108
도착했오	-13109
도착했으	-13110
라오는거	-13111
렸는지는	-13112
밥시켰어	-13113
보고싶음	-13114
스봐야지	-13115
씹고싶음	-13116
오는거래	-13117
이구만유	-13118
일어나쏘	-13119
찔인가봐	-13120
펴야게따	-13121
표하러가	-13122
하러가용	-13123
해보자구	-13124
해야돼요	-13125
했냐니까	-13126
형까지는	-13127
▁걷는시간	-13128
▁결정했어	-13129
▁꿀잠잘둣	-13130
▁꿔바로유	-13131
▁끊어두됑	-13132
▁끊었냐구	-13133
▁끊은거지	-13134
▁끝나자노	-13135
▁끝내주셨	-13136
▁나가니깡	-13137
▁나가면돼	-13138
▁나갈건뎅	-13139
▁나갈겡ᄑ	-13140
▁나갔나벼	-13141
▁나갔어도	-13142
▁나도너도	-13143
▁나보다는	-13144
▁나쁘지아	-13145
▁나올거면	-13146
▁나올규야	-13147
▁나와쪄용	-13148
▁나을정고	-13149
▁나이슨데	-13150
▁날아올라	-13151
▁남아따리	-13152
▁남았ᄉᄑ	-13153
▁남에게서	-13154
▁납득시키	-13155
▁낫는것도	-13156
▁났는지는	-13157
▁났어ᅲᅲ	-13158
▁내가더더	-13159
▁내버리기	-13160
▁내옆에서	-13161
▁낼름낼름	-13162
▁냉면위에	-13163
▁너무좋지	-13164
▁넘게했다	-13165
▁넘어갔나	-13166
▁넘어져써	-13167
▁넣어놨노	-13168
▁넣어놨어	-13169
▁넣어줘야	-13170
▁넣을거임	-13171
▁노래불러	-13172
▁놀다와도	-13173
▁놀랬겠다	-13174
▁놀려야지	-13175
▁놀리지마	-13176
▁놀았냐ᅣ	-13177
▁놀았자나	-13178
▁농땡이점	-13179
▁높은사람	-13180
▁놓치지않	-13181
▁놓칠까봐	-13182
▁누구누구	-13183
▁누룽지도	-13184
▁누룽지랑	-13185
▁누워있따	-13186
▁눈감아라	-13187
▁눈이떠짐	-13188
▁느껴지네	-13189
▁늦는구만	-13190
▁늦어도됨	-13191
▁늦춰졌네	-13192
▁다가오네	-13193
▁다끝내고	-13194
▁다르니까	-13195
▁다르다고	-13196
▁다르자낭	-13197
▁다른데써	-13198
▁다만들어	-13199
▁바쁘고	-13200
▁박혀있	-13201
▁반팔입	-13202
▁부셔져	-13203
▁분명히	-13204
▁빙고판	-13205
▁수호형	-13206
▁술마실	-13207
▁술먹기	-13208
▁신기함	-13209
▁안갈랭	-13210
▁안올듯	-13211
▁안왔지	-13212
▁애교를	-13213
▁영어못	-13214
▁왜안대	-13215
▁유산균	-13216
▁유산은	-13217
▁이만워	-13218
▁일로와	-13219
▁잡아놨	-13220
▁적응은	-13221
▁지갑이	-13222
▁지우게	-13223
▁지우셈	-13224
▁집이징	-13225
▁침대도	-13226
▁푹쉬고	-13227
▁푹쉬제	-13228
▁한공기	-13229
▁한명껴	-13230
▁할만함	-13231
▁함께야	-13232
▁해준거	-13233
▁해준게	-13234
▁해준데	-13235
▁허ᅡ내	-13236
▁다음달엔	-13237
▁다음역에	-13238
▁다챙기고	-13239
▁다했다고	-13240
▁다향인데	-13241
▁단추여며	-13242
▁닫앗ᄋᄆ	-13243
▁달려있오	-13244
▁달렸구나	-13245
▁달아줬자	-13246
▁담배만한	-13247
▁담배사러	-13248
▁담부터는	-13249
▁답답해두	-13250
▁당근이죵	-13251
▁당연하죠	-13252
▁당황했어	-13253
▁대단하신	-13254
▁대존맛임	-13255
▁대학원진	-13256
▁대해주지	-13257
▁댕겨오ᅥ	-13258
▁댕겨오이	-13259
▁댕겨올게	-13260
▁더더더야	-13261
▁더듣지ᅲ	-13262
▁더러러러	-13263
▁더러워질	-13264
▁더워졌네	-13265
▁더착해쪄	-13266
▁더착했슈	-13267
▁덮어주고	-13268
▁데꼬오고	-13269
▁데리고올	-13270
▁데리고와	-13271
▁델러오ᅥ	-13272
▁도라이네	-13273
▁도라힌가	-13274
▁도착안했	-13275
▁도착이럽	-13276
▁도착이영	-13277
▁도착햤다	-13278
▁도척하면	-13279
▁돈보냈어	-13280
▁돌아다닐	-13281
▁돌아왔따	-13282
▁동대문구	-13283
▁동댜입구	-13284
▁동안이네	-13285
▁되겠다고	-13286
▁되겠다리	-13287
▁두둥탁ᄀ	-13288
▁둘러보긴	-13289
▁뒤돌아봐	-13290
▁뒤로할게	-13291
▁뒤집어져	-13292
▁뒤척이다	-13293
▁뒹굴뒹굴	-13294
▁드론드론	-13295
▁드리라구	-13296
▁드리러가	-13297
▁드시라고	-13298
▁듣겠다고	-13299
세한건	-13300
셨고만	-13301
하대ᅲ	-13302
하루가	-13303
할만혀	-13304
할인림	-13305
할인중	-13306
해도대	-13307
해봐라	-13308
햌ᄉᄋ	-13309
햌ᄉ네	-13310
▁ᄇᄅ없	-13311
▁가시고	-13312
▁가시기	-13313
▁가족들	-13314
▁계획인	-13315
▁고고링	-13316
▁고비를	-13317
▁고비제	-13318
▁구워준	-13319
▁기절함	-13320
▁남아쑤	-13321
▁노원구	-13322
▁노원점	-13323
▁눈물각	-13324
▁눈물흘	-13325
▁다치신	-13326
▁더캠에	-13327
▁데꼬가	-13328
▁데꼬올	-13329
▁되고용	-13330
▁둘러만	-13331
▁들을수	-13332
▁만든거	-13333
▁만큼와	-13334
▁매일이	-13335
▁먹음되	-13336
▁메뉴판	-13337
▁면담좀	-13338
▁문닫고	-13339
▁티할인	-13340
가자해봐	-13341
생각해봐	-13342
이라한게	-13343
줄아세요	-13344
할만한거	-13345
할인중ᄋ	-13346
햌ᄉ어요	-13347
ᅮ생각해봐	-13348
▁가시네요	-13349
▁갔네ᅲᅲ	-13350
▁걸리네요	-13351
▁걸리셔서	-13352
▁고고링하	-13353
▁기절해서	-13354
▁김밥한줄	-13355
▁나눠가져	-13356
▁다치셔서	-13357
▁당연한건	-13358
▁듣고싶엉	-13359
▁듣고있다	-13360
▁듣고있찌	-13361
▁듣기좋아	-13362
▁들기에는	-13363
▁들려야될	-13364
▁들어ᄀ요	-13365
▁들어왔거	-13366
▁들은적이	-13367
▁들을까봐	-13368
▁등받이의	-13369
▁때려줬어	-13370
▁땡기는데	-13371
▁떠넘기기	-13372
▁떠드는중	-13373
▁떡볶이네	-13374
▁떨어졌네	-13375
▁또만두네	-13376
▁똑똑해서	-13377
▁똥싸는중	-13378
▁뚝딱인데	-13379
▁뛰어야돼	-13380
▁라고할뻔	-13381
▁로운가서	-13382
▁리뷰이벤	-13383
▁마ᅵᄂᄆ	-13384
▁마늘빵맛	-13385
▁마니먹네	-13386
▁마니목어	-13387
▁마마집에	-13388
▁마마짱이	-13389
▁마싯게먹	-13390
▁마주쳐서	-13391
▁마지못해	-13392
▁막막하더	-13393
▁막아버렸	-13394
▁만난다고	-13395
▁만드는데	-13396
▁만만하게	-13397
▁만져도돼	-13398
▁만지도라	-13399
▁뱅기	-13400
날이넹	-13401
들었지	-13402
랑카드	-13403
맛이넹	-13404
벅와쪄	-13405
상에도	-13406
어지면	-13407
일찍다	-13408
있었음	-13409
집가묜	-13410
찍어줭	-13411
찮아짐	-13412
출발함	-13413
했자낭	-13414
ᅦ어지면	-13415
ᅵ찮아짐	-13416
▁개일찍	-13417
▁넘치네	-13418
▁놀자는	-13419
▁디진다	-13420
▁모어때	-13421
▁몸에도	-13422
▁몸조심	-13423
▁벗었고	-13424
▁부정은	-13425
▁싫었음	-13426
▁안혼나	-13427
▁인나써	-13428
▁좀치네	-13429
▁표정은	-13430
▁확정은	-13431
고싶었고	-13432
보여쥬ᅥ	-13433
사랑카드	-13434
안들었지	-13435
여ᅲ옆에	-13436
원이에여	-13437
일찍다닉	-13438
있게먹을	-13439
집가는데	-13440
집가있어	-13441
출발이네	-13442
출발해요	-13443
출앞이욤	-13444
탁상에도	-13445
표찍어줭	-13446
해주자낭	-13447
▁ᄀᄎ은듯	-13448
▁개뛰었음	-13449
▁김밥에도	-13450
▁꿀맛이넹	-13451
▁나가있게	-13452
▁너네집가	-13453
▁누웠는데	-13454
▁늦게왔대	-13455
▁늦어지면	-13456
▁다녀왔대	-13457
▁다시키고	-13458
▁던킨으로	-13459
▁데려왔대	-13460
▁도망치네	-13461
▁도착이염	-13462
▁들어왔대	-13463
▁만나자는	-13464
▁말걸어도	-13465
▁말만하면	-13466
▁말씀드리	-13467
▁말이지욥	-13468
▁말하려했	-13469
▁말해뭐해	-13470
▁말해보께	-13471
▁말해야제	-13472
▁말해주기	-13473
▁맘대루혀	-13474
▁맛나겠다	-13475
▁맛있겠구	-13476
▁맛집이여	-13477
▁맛집인데	-13478
▁망가져서	-13479
▁망가지는	-13480
▁망해봐라	-13481
▁맞고갈게	-13482
▁맞다맞디	-13483
▁맡지말고	-13484
▁매니저님	-13485
▁매트랩에	-13486
▁머가웃기	-13487
▁머단하다	-13488
▁머리들면	-13489
▁머머글래	-13490
▁머먹어써	-13491
▁머먹을겨	-13492
▁머먹을고	-13493
▁머사갈까	-13494
▁먹고있대	-13495
▁먹고있삼	-13496
▁먹고있음	-13497
▁먹구이싸	-13498
▁먹규싶다	-13499
가때매	-13500
된거놐	-13501
매라면	-13502
메빨라	-13503
못받았	-13504
미스트	-13505
박드라	-13506
받았제	-13507
벗어나	-13508
봤다잉	-13509
써요오	-13510
안가두	-13511
어볼래	-13512
했드라	-13513
▁갖다주	-13514
▁개빨라	-13515
▁나보구	-13516
▁리스트	-13517
▁못물어	-13518
▁밥머고	-13519
▁벗어나	-13520
▁안비싸	-13521
▁입안에	-13522
▁제사지	-13523
▁짱빨라	-13524
▁케리어	-13525
▁효자메	-13526
고이써용	-13527
구매라면	-13528
맞지맞지	-13529
명이에유	-13530
못받았대	-13531
박드라마	-13532
받았다고	-13533
받았더니	-13534
사갈라고	-13535
아지다가	-13536
안가니까	-13537
평가때매	-13538
해서라면	-13539
▁가보겠대	-13540
▁갖다주까	-13541
▁깨써요오	-13542
▁담배사고	-13543
▁리스트만	-13544
▁마니보냄	-13545
▁마시써요	-13546
▁먹었슴돠	-13547
▁먹었지라	-13548
▁먹을라공	-13549
▁먹을지안	-13550
▁멀라두돼	-13551
▁멀리까지	-13552
▁멀리있는	-13553
▁멈춰있네	-13554
▁멍드러써	-13555
▁멍들거같	-13556
▁멍청한짓	-13557
▁메뉴판에	-13558
▁메모장에	-13559
▁멜론이랑	-13560
▁멱살잡고	-13561
▁멱살잡아	-13562
▁면목있네	-13563
▁몇명이나	-13564
▁몇살처럼	-13565
▁몇정고장	-13566
▁목는고야	-13567
▁몰래가져	-13568
▁몸보신은	-13569
▁못끼는중	-13570
▁못물어봒	-13571
▁못벗어나	-13572
▁못보내게	-13573
▁못생겨서	-13574
▁못생기게	-13575
▁못생긴거	-13576
▁못올수도	-13577
▁못움직여	-13578
▁못참았다	-13579
▁못찾은듯	-13580
▁못챙기고	-13581
▁못하겠음	-13582
▁못한다잉	-13583
▁무난하게	-13584
▁무시하기	-13585
▁무야무야	-13586
▁무음해놔	-13587
▁무적이라	-13588
▁무적이야	-13589
▁무적이자	-13590
▁무지하게	-13591
▁문닫아서	-13592
▁뭐노이게	-13593
▁뭐라셔요	-13594
▁뭐먹었니	-13595
▁뭐먹엉ᄑ	-13596
▁뭔일이야	-13597
▁미들이네	-13598
▁미뚱효과	-13599
313	-13600
831	-13601
lem	-13602
ᅭᅵᄉ	-13603
ᅭᅵ반	-13604
ᅭᅵ에	-13605
▁ga	-13606
▁gg	-13607
▁gl	-13608
▁ra	-13609
▁ᅮᅲ	-13610
▁곳에	-13611
▁굿굿	-13612
▁뜯어	-13613
▁썼어	-13614
▁얄두	-13615
▁얄쇠	-13616
▁억울	-13617
▁잇몸	-13618
▁쪽에	-13619
▁춥진	-13620
▁팀프	-13621
▁팀플	-13622
▁팬션	-13623
▁폈니	-13624
▁향들	-13625
▁효효	-13626
끝날거	-13627
년아닌	-13628
렸나봄	-13629
봤눈데	-13630
해놨음	-13631
허니딥	-13632
3137	-13633
4831	-13634
ᅭᅵᄉ고	-13635
ᅭᅵ반쯤	-13636
ᅲᅲᅳᅲ	-13637
▁gld	-13638
▁ray	-13639
▁ᄀ게임	-13640
▁구는듯	-13641
▁늦기만	-13642
▁단추는	-13643
▁뜯어봄	-13644
▁사갈겡	-13645
▁쌉가능	-13646
▁씹년아	-13647
▁안춥지	-13648
▁인생은	-13649
▁잇몸마	-13650
▁잊지마	-13651
▁접었어	-13652
▁첫게임	-13653
▁탕슉도	-13654
▁팀원이	-13655
▁폈는데	-13656
▁했눈데	-13657
▁효효효	-13658
년아닌교	-13659
도되겠네	-13660
천원이상	-13661
해야게찌	-13662
4831&	-13663
ᅭᅵ반쯤에	-13664
▁game	-13665
▁ᄀ게임도	-13666
▁ᅭᅵᄉ고	-13667
▁가방안에	-13668
▁금방끝날	-13669
▁꿑나돈데	-13670
▁남겨놨음	-13671
▁늦기만햐	-13672
▁들릴게유	-13673
▁딱기다려	-13674
▁미련한법	-13675
▁미뤄볼까	-13676
▁미완성임	-13677
▁미치겠따	-13678
▁믿어볼래	-13679
▁밀가루컷	-13680
▁밑바닥만	-13681
▁바꾸고옴	-13682
▁바람피면	-13683
▁바부바바	-13684
▁바쁘겠다	-13685
▁바쁜가보	-13686
▁박고있음	-13687
▁박혀있을	-13688
▁반바지입	-13689
▁반반하자	-13690
▁반정도에	-13691
▁반팔입고	-13692
▁받아볼래	-13693
▁받아줄래	-13694
▁받았눈뎅	-13695
▁발급받음	-13696
▁밥목는중	-13697
▁밥사달라	-13698
▁방법밖에	-13699
▁Dh	-13700
▁매운족	-13701
사갈꾸야	-13702
해야할지	-13703
▁나갈고양	-13704
▁드라마야	-13705
▁들어오고	-13706
▁말했어잉	-13707
▁매운족발	-13708
▁뭐하는건	-13709
▁뭐하는새	-13710
▁미친거어	-13711
▁방학이ᅣ	-13712
▁배고푸지	-13713
▁배고픈데	-13714
▁배려심넘	-13715
▁배려심도	-13716
▁배부르다	-13717
▁배송와서	-13718
▁배아파서	-13719
▁백만번하	-13720
▁백수같을	-13721
▁백알먹자	-13722
▁백퍼있다	-13723
▁버릇없어	-13724
▁변명하고	-13725
▁변하거나	-13726
▁별거없네	-13727
▁병신이야	-13728
▁보거시퍼	-13729
▁보고있늬	-13730
▁보구시포	-13731
▁보기싫어	-13732
▁보기에는	-13733
▁보내드림	-13734
▁보내봐써	-13735
▁보내줄때	-13736
▁보낸거야	-13737
▁보낸다고	-13738
▁보냉팩에	-13739
▁보는건가	-13740
▁보쌈으로	-13741
▁보여줘바	-13742
▁보여줘용	-13743
▁보이네요	-13744
▁보이는거	-13745
▁보입니까	-13746
▁복수랄까	-13747
▁본다면서	-13748
▁봐달라함	-13749
▁봐도봐도	-13750
▁봐두돼요	-13751
▁봐야겄어	-13752
▁부끄럽지	-13753
▁부술듯이	-13754
▁부탁하누	-13755
▁분위기가	-13756
▁불고기밥	-13757
▁불만없다	-13758
▁불만있냐	-13759
▁불지폈어	-13760
▁불친절하	-13761
▁불태워따	-13762
▁불편하징	-13763
▁붙어있자	-13764
▁붙였어요	-13765
▁비냉이야	-13766
▁비마트둥	-13767
▁비맞는거	-13768
▁비밀친구	-13769
▁비싼거를	-13770
▁빌려주지	-13771
▁빕먹으러	-13772
▁빠르고만	-13773
▁빠졌드라	-13774
▁빡대가리	-13775
▁빡치자나	-13776
▁빨랑오ᅥ	-13777
▁빨리와ᅲ	-13778
▁빨리왔네	-13779
▁빵사드실	-13780
▁빼라해서	-13781
▁빼박이지	-13782
▁뺀질이였	-13783
▁뽑어야대	-13784
▁사갈거임	-13785
▁사갈건데	-13786
▁사거리로	-13787
▁사과해란	-13788
▁사귀나봐	-13789
▁사는사람	-13790
▁사랑햐요	-13791
▁사러가용	-13792
▁사악하게	-13793
▁사악하다	-13794
▁사야겠어	-13795
▁사용하라	-13796
▁사이트이	-13797
▁사장님이	-13798
▁사적질문	-13799
▁쳐야함	-13800
▁칭찬해	-13801
▁틀어놨	-13802
▁틀어만	-13803
▁하늘에	-13804
▁학생증	-13805
가고싶구	-13806
가고싶엉	-13807
가고싶지	-13808
다그러면	-13809
보나부네	-13810
시입니당	-13811
있나부네	-13812
킹해야디	-13813
하라구해	-13814
▁ᄌ잘했어	-13815
▁갈꺼에요	-13816
▁갈수있지	-13817
▁같은데는	-13818
▁고생했슈	-13819
▁곧이에유	-13820
▁귀차나용	-13821
▁다녀올께	-13822
▁다녀올꼐	-13823
▁다녀올다	-13824
▁드라마로	-13825
▁들오가료	-13826
▁또그러면	-13827
▁먹어두됑	-13828
▁못하는게	-13829
▁사주고싶	-13830
▁사탕사서	-13831
▁사회생활	-13832
▁살고있는	-13833
▁살살ᄅᄅ	-13834
▁살수있음	-13835
▁살아났노	-13836
▁살아있지	-13837
▁살았군요	-13838
▁살았다아	-13839
▁삼각김ᄇ	-13840
▁삼겹김치	-13841
▁삼천원이	-13842
▁상관없음	-13843
▁상의하는	-13844
▁상의한번	-13845
▁상처받음	-13846
▁생각한지	-13847
▁생각했니	-13848
▁생크림빵	-13849
▁샤워하고	-13850
▁서울오지	-13851
▁서장원닮	-13852
▁석계역이	-13853
▁설렁탕집	-13854
▁설치안해	-13855
▁설치하고	-13856
▁성공했지	-13857
▁성의없게	-13858
▁성장하고	-13859
▁세상에나	-13860
▁섹스같아	-13861
▁섹스할래	-13862
▁섹시하게	-13863
▁소개팅이	-13864
▁소외감느	-13865
▁소주먹규	-13866
▁속상한것	-13867
▁속상했을	-13868
▁손님없다	-13869
▁손석구가	-13870
▁쇼핑이ᅥ	-13871
▁수목이염	-13872
▁수업듣는	-13873
▁술드셨나	-13874
▁술마실때	-13875
▁술먹기러	-13876
▁술먹으로	-13877
▁술목는중	-13878
▁술안먹어	-13879
▁쉬어야된	-13880
▁쉴수있찌	-13881
▁쉽지않네	-13882
▁쉽지않다	-13883
▁스루스루	-13884
▁스루스류	-13885
▁스벅와쪄	-13886
▁스테이크	-13887
▁스토리에	-13888
▁스티커붙	-13889
▁시간되서	-13890
▁시무룩행	-13891
▁시발시발	-13892
▁시작됐나	-13893
▁신랑이란	-13894
▁실망스러	-13895
▁실수한줄	-13896
▁실장님과	-13897
▁실패하누	-13898
▁싫으시대	-13899
긴한디	-13900
북하도	-13901
▁zzl	-13902
▁마쳤어	-13903
▁맘대류	-13904
▁면접보	-13905
▁모습이	-13906
▁뭔데요	-13907
▁바라봐	-13908
▁백퍼임	-13909
▁상처는	-13910
▁석관시	-13911
▁석관중	-13912
▁소주잔	-13913
▁슬프구	-13914
▁십분만	-13915
▁씹덕같	-13916
▁아닐거	-13917
▁아닐까	-13918
▁안울렸	-13919
▁안울림	-13920
▁안좋은	-13921
▁어렵게	-13922
▁어렵네	-13923
▁어렵지	-13924
▁어색햐	-13925
▁에그가	-13926
▁오전조	-13927
▁오해해	-13928
▁오해핼	-13929
▁왜웃음	-13930
▁요거맞	-13931
▁요기있	-13932
▁음식이	-13933
▁음식점	-13934
▁이지ᄅ	-13935
▁이지롱	-13936
▁이틀참	-13937
▁있다네	-13938
▁있다와	-13939
▁있으셈	-13940
▁전해달	-13941
▁종강임	-13942
▁지내보	-13943
▁진료가	-13944
▁집중도	-13945
▁챙기구	-13946
▁추석영	-13947
북북하도	-13948
알바랬나	-13949
▁zzlz	-13950
▁만지는중	-13951
▁만지다가	-13952
▁멍청하게	-13953
▁면접가서	-13954
▁면접이래	-13955
▁모습보면	-13956
▁못가줘서	-13957
▁북북하도	-13958
▁빠빠이야	-13959
▁사라졌다	-13960
▁사라졌어	-13961
▁상처받아	-13962
▁석관시장	-13963
▁세상이네	-13964
▁소개할게	-13965
▁속초에서	-13966
▁싶었지만	-13967
▁싹싹빌게	-13968
▁써버렸네	-13969
▁써브웨이	-13970
▁썹우ᅢ이	-13971
▁썹웨이조	-13972
▁쎄가지구	-13973
▁쎈가보다	-13974
▁쓰고와라	-13975
▁쓰는거징	-13976
▁쓰러질게	-13977
▁쓸어만져	-13978
▁씨익씨익	-13979
▁씹덕말투	-13980
▁씻고나왓	-13981
▁씻고올개	-13982
▁씻고있남	-13983
▁씻구있남	-13984
▁씻구있닝	-13985
▁씻어야죵	-13986
▁씻으러규	-13987
▁씻을건디	-13988
▁씻을라궁	-13989
▁씻을래요	-13990
▁아ᅡᅡᅡ	-13991
▁아까말햤	-13992
▁아꼈ᄋᄅ	-13993
▁아뉭아뉭	-13994
▁아는거지	-13995
▁아는척해	-13996
▁아니였누	-13997
▁아닐때도	-13998
▁아무말씀	-13999
답하라	-14000
듸질래	-14001
명하군	-14002
이피자	-14003
적인게	-14004
전해줌	-14005
졌다그	-14006
청소도	-14007
하라넹	-14008
▁ᄌᄂ뜬	-14009
▁개꿀잼	-14010
▁갠찬아	-14011
▁국밥은	-14012
▁나이대	-14013
▁나이승	-14014
▁나이제	-14015
▁날이ᅵ	-14016
▁남음요	-14017
▁냉동제	-14018
▁놀랐네	-14019
▁놀랐어	-14020
▁돌리러	-14021
▁돌리지	-14022
▁듸질래	-14023
▁망해줌	-14024
▁방청소	-14025
▁습한가	-14026
▁안줬어	-14027
▁할까냐	-14028
▁후배랑	-14029
보게해줌	-14030
순적인게	-14031
자자자자	-14032
졌다그럈	-14033
하긴한가	-14034
하라그래	-14035
하라넹ᄒ	-14036
한가해서	-14037
합니데이	-14038
▁7000	-14039
▁9000	-14040
▁ᄌᄂ뜬금	-14041
▁ᄏᄏ혼자	-14042
▁개꿀잼임	-14043
▁갠찬아용	-14044
▁공뷰하께	-14045
▁국밥이네	-14046
▁나이대묜	-14047
▁나이제씻	-14048
▁냉동제픔	-14049
▁네에네에	-14050
▁놀랐어ᅲ	-14051
▁놀랐잖아	-14052
▁놀았다고	-14053
▁다섯시쯤	-14054
▁대기주에	-14055
▁대단하군	-14056
▁돌리겠네	-14057
▁마감청소	-14058
▁만지고있	-14059
▁못전해줌	-14060
▁못해줬어	-14061
▁보고하라	-14062
▁보내졌다	-14063
▁부족해ᅲ	-14064
▁비싼치킨	-14065
▁습한가보	-14066
▁심심하군	-14067
▁아아아오	-14068
▁아이고양	-14069
▁아이쇼핑	-14070
▁아조씨가	-14071
▁아좌아좌	-14072
▁아좌자자	-14073
▁아주아주	-14074
▁아찔하다	-14075
▁아프리카	-14076
▁아플까봐	-14077
▁악뮤노랴	-14078
▁안갈게ᅲ	-14079
▁안갔을까	-14080
▁안그래ᅦ	-14081
▁안그치면	-14082
▁안기다리	-14083
▁안끝나또	-14084
▁안끝났네	-14085
▁안나오노	-14086
▁안나온놈	-14087
▁안남아쓰	-14088
▁안남았까	-14089
▁안남았네	-14090
▁안놀고야	-14091
▁안됐으면	-14092
▁안된다핶	-14093
▁안드시는	-14094
▁안듣는데	-14095
▁안먹었오	-14096
▁안먹었음	-14097
▁안받아도	-14098
▁안받아유	-14099
ᄅ래요	-14100
데그롬	-14101
많은지	-14102
받어는	-14103
보래요	-14104
볼래요	-14105
살이랴	-14106
생겼누	-14107
성시킴	-14108
안맞아	-14109
언제애	-14110
언제쯤	-14111
언제해	-14112
으신가	-14113
자꾸나	-14114
짱많아	-14115
혔자너	-14116
▁가시는	-14117
▁개많아	-14118
▁계신가	-14119
▁기많이	-14120
▁기회가	-14121
▁나시킴	-14122
▁눕는군	-14123
▁답없는	-14124
▁되자너	-14125
▁때려도	-14126
▁빵시킴	-14127
▁암말도	-14128
▁양말도	-14129
▁위로는	-14130
▁입어도	-14131
▁주시는	-14132
▁줄인다	-14133
▁키트도	-14134
▁편할대	-14135
게생겼누	-14136
러가자너	-14137
린거맞아	-14138
많이했어	-14139
먹어보게	-14140
아아아앙	-14141
을듯래요	-14142
ᅩᄂ데그롬	-14143
▁ᄉᄇ자꾸	-14144
▁귀여유ᅩ	-14145
▁냉면시킴	-14146
▁먹으라규	-14147
▁먼저먹으	-14148
▁보구싶퍼	-14149
▁사람많아	-14150
▁시험보는	-14151
▁씻을라규	-14152
▁아니자너	-14153
▁안먹은지	-14154
▁안비싸면	-14155
▁안시무룩	-14156
▁안시키고	-14157
▁안쓰니까	-14158
▁안씻었어	-14159
▁안아파서	-14160
▁안아프게	-14161
▁안알려줌	-14162
▁안알려쥼	-14163
▁안열어서	-14164
▁안열었징	-14165
▁안오게찌	-14166
▁안왔으면	-14167
▁안울려서	-14168
▁안울렸지	-14169
▁안일어나	-14170
▁안자는즁	-14171
▁안잡을게	-14172
▁안잡해서	-14173
▁안전했다	-14174
▁안좋아ᅲ	-14175
▁안챙겨두	-14176
▁안챙겨따	-14177
▁안챙겼어	-14178
▁안챙기고	-14179
▁안취해서	-14180
▁안취했어	-14181
▁안하도라	-14182
▁안하잖아	-14183
▁안할거임	-14184
▁안해주고	-14185
▁안혼나쪄	-14186
▁안힘들어	-14187
▁않으려면	-14188
▁알겠대요	-14189
▁알겠슈다	-14190
▁알고있대	-14191
▁알라ᅡ뷰	-14192
▁알려주기	-14193
▁알려주묜	-14194
▁알려줘야	-14195
▁알면됐어	-14196
▁알바생도	-14197
▁알았겠따	-14198
▁알지도못	-14199
lif	-14200
~50	-14201
ᅭᅥ유	-14202
▁ᄉ발	-14203
▁각자	-14204
▁긔찮	-14205
▁리어	-14206
▁리히	-14207
▁밤새	-14208
▁밤샐	-14209
▁앵간	-14210
▁앵기	-14211
▁클라	-14212
▁클릭	-14213
▁탄다	-14214
가기는	-14215
가기러	-14216
고가기	-14217
글거려	-14218
꺼지노	-14219
노래만	-14220
노래방	-14221
떡강정	-14222
lify	-14223
▁닫는고	-14224
▁리어르	-14225
▁밤새서	-14226
▁밤샐게	-14227
▁안꺼지	-14228
▁앵간히	-14229
▁제노래	-14230
▁클라렉	-14231
▁할꺼지	-14232
도노래방	-14233
바글거려	-14234
통떡강정	-14235
▁1011	-14236
▁4~50	-14237
▁끌고가기	-14238
▁누구노래	-14239
▁늦어ᅭᅥ	-14240
▁망가기는	-14241
▁먹을꺼지	-14242
▁신주애가	-14243
▁암때나유	-14244
▁압박감이	-14245
▁앙버터욤	-14246
▁앞사람이	-14247
▁앞에꺼는	-14248
▁애기라규	-14249
▁애기라서	-14250
▁애기로해	-14251
▁애기얼굴	-14252
▁애들보구	-14253
▁야리는데	-14254
▁야무지지	-14255
▁얌얌하고	-14256
▁양성나어	-14257
▁양치부터	-14258
▁얘기마저	-14259
▁얘기만함	-14260
▁얘기한건	-14261
▁얘기했니	-14262
▁얘매해서	-14263
▁어ᅢ자꾸	-14264
▁어디어디	-14265
▁어떤말도	-14266
▁어떰어떰	-14267
▁어렌지잼	-14268
▁어려워용	-14269
▁어렵구나	-14270
▁어마어마	-14271
▁어제보단	-14272
▁어쩔방구	-14273
▁어쩔티비	-14274
▁어찌이래	-14275
▁어찌저럼	-14276
▁어케살아	-14277
▁어키오키	-14278
▁억울해ᅲ	-14279
▁언제봐요	-14280
▁언제오냐	-14281
▁언제오느	-14282
▁얻고가요	-14283
▁얼른가께	-14284
▁얼른보아	-14285
▁얼른통화	-14286
▁얼얼할대	-14287
▁없긴하지	-14288
▁없슙니당	-14289
▁없어요오	-14290
▁없을거래	-14291
▁엘리트임	-14292
▁엘베타고	-14293
▁여러가지	-14294
▁여유롭다	-14295
▁여전하고	-14296
▁여친한테	-14297
▁여행가고	-14298
▁여행갔다	-14299
▁페퍼	-14300
▁돌려놓	-14301
▁들우러	-14302
▁스발럼	-14303
▁얄밉고	-14304
▁없었단	-14305
▁페퍼민	-14306
가야돼서	-14307
실테니까	-14308
써ᅲᅲᄑ	-14309
적으로햐	-14310
▁간다고말	-14311
▁간다고한	-14312
▁갖고있으	-14313
▁개빡친다	-14314
▁고맙다궁	-14315
▁고맙다잉	-14316
▁껴안고만	-14317
▁나간다며	-14318
▁네이버가	-14319
▁다이아야	-14320
▁듣지ᅲᅲ	-14321
▁따준다고	-14322
▁못가니까	-14323
▁부모님은	-14324
▁부셔볼게	-14325
▁비요뜨도	-14326
▁성현이눈	-14327
▁스발럼아	-14328
▁싶지않아	-14329
▁알겠다는	-14330
▁알겠다리	-14331
▁연결했어	-14332
▁연극이네	-14333
▁연락남겨	-14334
▁연락드림	-14335
▁연락안봐	-14336
▁연락잘해	-14337
▁연락주셔	-14338
▁열공혀라	-14339
▁열차지나	-14340
▁열차탔오	-14341
▁영어아님	-14342
▁영향갔나	-14343
▁영혼까지	-14344
▁영혼없는	-14345
▁옆구리가	-14346
▁옆구리에	-14347
▁옆집한테	-14348
▁예매할게	-14349
▁예쁜여자	-14350
▁예상대로	-14351
▁예상보다	-14352
▁옛날에나	-14353
▁오기에는	-14354
▁오나안오	-14355
▁오늘의초	-14356
▁오덕이래	-14357
▁오마마자	-14358
▁오만원꼴	-14359
▁오버될듯	-14360
▁오빠오빠	-14361
▁오오오옷	-14362
▁오오오옹	-14363
▁오이시꾸	-14364
▁오전수업	-14365
▁오징어랑	-14366
▁오천원은	-14367
▁오픈이서	-14368
▁오픈일듯	-14369
▁오해하셔	-14370
▁온다드라	-14371
▁올거에요	-14372
▁올꺼잖아	-14373
▁올라간거	-14374
▁올라오냐	-14375
▁올렸구나	-14376
▁올리려고	-14377
▁옮겨담은	-14378
▁옮겼나봄	-14379
▁옮겼어요	-14380
▁옴마집에	-14381
▁와이파이	-14382
▁완벽하게	-14383
▁왔슙니당	-14384
▁왕십리로	-14385
▁왜그러냐	-14386
▁왜그러믄	-14387
▁왜그러시	-14388
▁왜그러지	-14389
▁왜그렇게	-14390
▁왜그르지	-14391
▁왜들어ᅡ	-14392
▁왜안보냐	-14393
▁왜켜있노	-14394
▁외국이야	-14395
▁외식할까	-14396
▁외투라도	-14397
▁요거맞죠	-14398
▁요거맞지	-14399
고가며	-14400
▁빡치네	-14401
▁어니러	-14402
▁어니야	-14403
▁어딜가	-14404
▁없으니	-14405
▁우째ᅲ	-14406
▁우째긴	-14407
▁월급날	-14408
▁월급받	-14409
▁월화오	-14410
▁조지까	-14411
▁존맛탱	-14412
▁지나쳤	-14413
▁하하호	-14414
▁한국말	-14415
▁한국에	-14416
▁해야될	-14417
▁혼내죠	-14418
▁훔쳐갈	-14419
▁훔쳐봄	-14420
갔더라구	-14421
것때문에	-14422
나갈거야	-14423
못받아서	-14424
습시간이	-14425
시전에끄	-14426
애때문에	-14427
이더라구	-14428
주고싶네	-14429
▁ᄋ갈거야	-14430
▁같이먹장	-14431
▁개보이네	-14432
▁길어지네	-14433
▁듣고싶네	-14434
▁못받아서	-14435
▁못했을거	-14436
▁버렸는디	-14437
▁사갈거야	-14438
▁오고가며	-14439
▁요거에요	-14440
▁요거트가	-14441
▁요거트랑	-14442
▁요것저것	-14443
▁요앞에꺼	-14444
▁우렁차게	-14445
▁우리내일	-14446
▁우산이쓔	-14447
▁우산있죠	-14448
▁우짤래미	-14449
▁울었오요	-14450
▁움직여야	-14451
▁웃었으면	-14452
▁웅안다쳐	-14453
▁원주니랑	-14454
▁월급날이	-14455
▁월화수목	-14456
▁월화수오	-14457
▁월화오픈	-14458
▁위험하네	-14459
▁위험하다	-14460
▁윤지원옴	-14461
▁	-14462
ᄏ	-14463
어	-14464
나	-14465
?	-14466
이	-14467
기	-14468
다	-14469
고	-14470
가	-14471
자	-14472
아	-14473
지	-14474
하	-14475
서	-14476
는	-14477
요	-14478
도	-14479
!	-14480
해	-14481
게	-14482
시	-14483
에	-14484
야	-14485
구	-14486
~	-14487
오	-14488
먹	-14489
있	-14490
그	-14491
니	-14492
거	-14493
네	-14494
응	-14495
ᅲ	-14496
안	-14497
데	-14498
보	-14499
일	-14500
.	-14501
면	-14502
웅	-14503
애	-14504
제	-14505
들	-14506
까	-14507
했	-14508
리	-14509
래	-14510
라	-14511
내	-14512
으	-14513
마	-14514
용	-14515
만	-14516
잘	-14517
로	-14518
한	-14519
집	-14520
간	-14521
착	-14522
러	-14523
와	-14524
은	-14525
려	-14526
사	-14527
랑	-14528
을	-14529
끝	-14530
대	-14531
수	-14532
겠	-14533
밥	-14534
할	-14535
장	-14536
갈	-14537
부	-14538
말	-14539
유	-14540
무	-14541
같	-14542
금	-14543
저	-14544
바	-14545
정	-14546
화	-14547
너	-14548
잉	-14549
히	-14550
분	-14551
싶	-14552
주	-14553
었	-14554
1	-14555
알	-14556
미	-14557
더	-14558
전	-14559
조	-14560
뭐	-14561
0	-14562
근	-14563
중	-14564
늘	-14565
두	-14566
연	-14567
현	-14568
우	-14569
생	-14570
케	-14571
님	-14572
ᄋ	-14573
따	-14574
녀	-14575
음	-14576
배	-14577
왔	-14578
여	-14579
실	-14580
써	-14581
피	-14582
인	-14583
디	-14584
쉬	-14585
심	-14586
공	-14587
왜	-14588
출	-14589
없	-14590
발	-14591
났	-14592
준	-14593
때	-14594
ᄒ	-14595
얼	-14596
올	-14597
좋	-14598
봐	-14599
진	-14600
난	-14601
좀	-14602
노	-14603
방	-14604
비	-14605
드	-14606
담	-14607
의	-14608
른	-14609
원	-14610
워	-14611
점	-14612
짜	-14613
스	-14614
씻	-14615
머	-14616
2	-14617
못	-14618
줘	-14619
냐	-14620
치	-14621
맛	-14622
갔	-14623
카	-14624
럼	-14625
상	-14626
3	-14627
임	-14628
남	-14629
각	-14630
신	-14631
개	-14632
슬	-14633
업	-14634
락	-14635
ᄉ	-14636
찍	-14637
교	-14638
강	-14639
엄	-14640
돼	-14641
았	-14642
5	-14643
겨	-14644
늦	-14645
함	-14646
학	-14647
동	-14648
찮	-14649
건	-14650
괜	-14651
테	-14652
모	-14653
얘	-14654
귀	-14655
맞	-14656
줄	-14657
직	-14658
쯤	-14659
많	-14660
번	-14661
반	-14662
입	-14663
당	-14664
차	-14665
감	-14666
버	-14667
소	-14668
타	-14669
받	-14670
언	-14671
엉	-14672
잠	-14673
키	-14674
민	-14675
ᄂ	-14676
쿄	-14677
되	-14678
누	-14679
람	-14680
울	-14681
천	-14682
날	-14683
또	-14684
것	-14685
넹	-14686
행	-14687
세	-14688
열	-14689
철	-14690
4	-14691
계	-14692
예	-14693
걸	-14694
팅	-14695
파	-14696
냥	-14697
놀	-14698
물	-14699
르	-14700
챙	-14701
단	-14702
퇴	-14703
청	-14704
볼	-14705
빠	-14706
친	-14707
속	-14708
힘	-14709
문	-14710
혼	-14711
석	-14712
쓰	-14713
글	-14714
져	-14715
규	-14716
쟈	-14717
앙	-14718
ᄀ	-14719
갑	-14720
ᄇ	-14721
꺼	-14722
약	-14723
루	-14724
긴	-14725
듯	-14726
쓔	-14727
눈	-14728
역	-14729
불	-14730
께	-14731
달	-14732
넘	-14733
먼	-14734
빨	-14735
재	-14736
터	-14737
트	-14738
않	-14739
프	-14740
런	-14741
존	-14742
편	-14743
ᄃ	-14744
돌	-14745
운	-14746
코	-14747
톡	-14748
쉅	-14749
6	-14750
렇	-14751
렸	-14752
매	-14753
힝	-14754
죠	-14755
호	-14756
슈	-14757
퍼	-14758
온	-14759
레	-14760
몇	-14761
과	-14762
식	-14763
웃	-14764
떠	-14765
살	-14766
답	-14767
박	-14768
벌	-14769
녁	-14770
듣	-14771
양	-14772
질	-14773
ᄅ	-14774
잤	-14775
후	-14776
7	-14777
돈	-14778
산	-14779
씨	-14780
즁	-14781
폰	-14782
군	-14783
페	-14784
느	-14785
던	-14786
별	-14787
빵	-14788
통	-14789
곤	-14790
곧	-14791
국	-14792
목	-14793
를	-14794
좌	-14795
충	-14796
ᅮ	-14797
길	-14798
놓	-14799
봤	-14800
포	-14801
흠	-14802
엥	-14803
쪄	-14804
걱	-14805
새	-14806
욤	-14807
켜	-14808
8	-14809
습	-14810
작	-14811
든	-14812
^	-14813
크	-14814
푹	-14815
깐	-14816
끼	-14817
찌	-14818
휴	-14819
경	-14820
흐	-14821
낼	-14822
됐	-14823
된	-14824
뒤	-14825
싫	-14826
옴	-14827
픈	-14828
❤	-14829
베	-14830
쉴	-14831
위	-14832
걍	-14833
영	-14834
앞	-14835
헤	-14836
김	-14837
짐	-14838
️	-14839
굴	-14840
처	-14841
태	-14842
깅	-14843
꾸	-14844
몰	-14845
선	-14846
징	-14847
ᅥ	-14848
성	-14849
얍	-14850
회	-14851
완	-14852
토	-14853
z	-14854
관	-14855
막	-14856
밖	-14857
슨	-14858
추	-14859
술	-14860
필	-14861
확	-14862
ᄌ	-14863
갠	-14864
린	-14865
였	-14866
닝	-14867
셔	-14868
적	-14869
헉	-14870
밌	-14871
죽	-14872
잔	-14873
찾	-14874
침	-14875
험	-14876
ᅡ	-14877
넵	-14878
곶	-14879
릉	-14880
옷	-14881
겡	-14882
녜	-14883
명	-14884
왤	-14885
합	-14886
ᅳ	-14887
융	-14888
9	-14889
릴	-14890
망	-14891
셨	-14892
앉	-14893
핸	-14894
홧	-14895
랴	-14896
범	-14897
잖	-14898
텐	-14899
둘	-14900
탔	-14901
결	-14902
메	-14903
엽	-14904
쳐	-14905
티	-14906
형	-14907
손	-14908
쏘	-14909
월	-14910
꼭	-14911
랭	-14912
뻐	-14913
맘	-14914
쁘	-14915
ᄑ	-14916
싸	-14917
옹	-14918
줌	-14919
증	-14920
될	-14921
브	-14922
졌	-14923
탕	-14924
ᄎ	-14925
혀	-14926
e	-14927
닭	-14928
림	-14929
뷰	-14930
절	-14931
즈	-14932
항	-14933
ᄐ	-14934
능	-14935
럴	-14936
본	-14937
창	-14938
킨	-14939
ᅦ	-14940
놈	-14941
떡	-14942
족	-14943
넌	-14944
란	-14945
왕	-14946
허	-14947
ᅩ	-14948
굳	-14949
깨	-14950
색	-14951
초	-14952
판	-14953
t	-14954
겼	-14955
급	-14956
냉	-14957
덜	-14958
름	-14959
책	-14960
쳤	-14961
커	-14962
딱	-14963
력	-14964
볶	-14965
쁜	-14966
십	-14967
졸	-14968
;	-14969
a	-14970
ᅵ	-14971
료	-14972
뭔	-14973
삼	-14974
설	-14975
쉰	-14976
염	-14977
참	-14978
취	-14979
s	-14980
깼	-14981
랬	-14982
백	-14983
봄	-14984
씹	-14985
짱	-14986
최	-14987
/	-14988
년	-14989
뉴	-14990
몸	-14991
썽	-14992
줬	-14993
쿠	-14994
검	-14995
궁	-14996
떤	-14997
옆	-14998
투	-14999
ᄆ	-15000
겅	-15001
닥	-15002
읽	-15003
잡	-15004
켰	-15005
걔	-15006
넣	-15007
닌	-15008
듀	-15009
류	-15010
얌	-15011
엘	-15012
쪽	-15013
찜	-15014
척	-15015
표	-15016
골	-15017
껴	-15018
덕	-15019
빼	-15020
암	-15021
땡	-15022
론	-15023
밍	-15024
붙	-15025
빡	-15026
억	-15027
플	-15028
c	-15029
o	-15030
둥	-15031
쉽	-15032
체	-15033
춰	-15034
)	-15035
l	-15036
꿀	-15037
냠	-15038
병	-15039
빈	-15040
외	-15041
째	-15042
큼	-15043
풀	-15044
퓨	-15045
혹	-15046
ᅭ	-15047
댜	-15048
떨	-15049
샀	-15050
셈	-15051
팔	-15052
(	-15053
d	-15054
ᅢ	-15055
놔	-15056
등	-15057
똑	-15058
멀	-15059
복	-15060
움	-15061
읭	-15062
채	-15063
큐	-15064
햐	-15065
낭	-15066
뽀	-15067
뿌	-15068
샌	-15069
숨	-15070
욜	-15071
쥬	-15072
킼	-15073
틀	-15074
패	-15075
흑	-15076
n	-15077
꼬	-15078
록	-15079
링	-15080
맨	-15081
멍	-15082
웠	-15083
잇	-15084
홀	-15085
황	-15086
h	-15087
i	-15088
p	-15089
끄	-15090
냈	-15091
닷	-15092
랏	-15093
랐	-15094
랜	-15095
며	-15096
순	-15097
축	-15098
칠	-15099
펴	-15100
겜	-15101
곡	-15102
긍	-15103
놨	-15104
삭	-15105
슙	-15106
왱	-15107
찬	-15108
컷	-15109
꺄	-15110
덩	-15111
뻔	-15112
승	-15113
엡	-15114
쩔	-15115
츠	-15116
콘	-15117
쿤	-15118
푸	-15119
-	-15120
r	-15121
꿑	-15122
끊	-15123
뎅	-15124
됨	-15125
럽	-15126
렵	-15127
블	-15128
격	-15129
농	-15130
뇽	-15131
띠	-15132
랄	-15133
렁	-15134
맙	-15135
맴	-15136
샤	-15137
씀	-15138
엔	-15139
희	-15140
곳	-15141
떻	-15142
몬	-15143
믿	-15144
앗	-15145
웹	-15146
종	-15147
큰	-15148
'	-15149
냄	-15150
딘	-15151
멋	-15152
벽	-15153
션	-15154
쇠	-15155
쓸	-15156
익	-15157
즘	-15158
탈	-15159
택	-15160
툰	-15161
품	-15162
헐	-15163
환	-15164
흥	-15165
😊	-15166
:	-15167
m	-15168
v	-15169
뜨	-15170
롬	-15171
묜	-15172
믄	-15173
슷	-15174
욥	-15175
웨	-15176
죵	-15177
컨	-15178
핀	-15179
낸	-15180
땀	-15181
싯	-15182
육	-15183
쩌	-15184
쪼	-15185
킬	-15186
핫	-15187
k	-15188
w	-15189
뉭	-15190
닫	-15191
덮	-15192
뛰	-15193
롤	-15194
롭	-15195
묵	-15196
밀	-15197
벗	-15198
숙	-15199
왓	-15200
접	-15201
쥐	-15202
즐	-15203
짝	-15204
튜	-15205
u	-15206
득	-15207
뜻	-15208
롱	-15209
뭘	-15210
북	-15211
송	-15212
쌀	-15213
짓	-15214
쬬	-15215
캐	-15216
효	-15217
곱	-15218
광	-15219
괴	-15220
깜	-15221
껀	-15222
낫	-15223
덥	-15224
딩	-15225
렀	-15226
빌	-15227
쇼	-15228
슴	-15229
악	-15230
엑	-15231
잼	-15232
쟁	-15233
젝	-15234
죄	-15235
츄	-15236
킴	-15237
홍	-15238
S	-15239
g	-15240
ᄈ	-15241
ᅣ	-15242
논	-15243
똥	-15244
렌	-15245
맥	-15246
뮤	-15247
봉	-15248
빙	-15249
셤	-15250
윤	-15251
좆	-15252
첫	-15253
칭	-15254
칼	-15255
탁	-15256
풍	-15257
향	-15258
>	-15259
@	-15260
\	-15261
갸	-15262
겁	-15263
긔	-15264
깔	-15265
꼈	-15266
꿈	-15267
끔	-15268
댕	-15269
밤	-15270
뼈	-15271
솔	-15272
슉	-15273
윙	-15274
잃	-15275
쟤	-15276
짤	-15277
컴	-15278
탱	-15279
폈	-15280
평	-15281
햄	-15282
헥	-15283
A	-15284
b	-15285
겸	-15286
껭	-15287
끌	-15288
낌	-15289
뇨	-15290
닐	-15291
떄	-15292
련	-15293
변	-15294
빴	-15295
싼	-15296
얀	-15297
옛	-15298
옮	-15299
옶	-15300
쨔	-15301
촌	-15302
켕	-15303
클	-15304
킹	-15305
털	-15306
훔	-15307
=	-15308
갓	-15309
갖	-15310
깝	-15311
깡	-15312
꼼	-15313
꽤	-15314
넉	-15315
널	-15316
넛	-15317
눕	-15318
딜	-15319
렴	-15320
묘	-15321
봥	-15322
쑤	-15323
젤	-15324
쭈	-15325
춥	-15326
켓	-15327
탄	-15328
탐	-15329
튀	-15330
흔	-15331
힐	-15332
#	-15333
Z	-15334
f	-15335
갱	-15336
겹	-15337
굿	-15338
귣	-15339
꿔	-15340
놉	-15341
델	-15342
뎌	-15343
량	-15344
뤼	-15345
립	-15346
먄	-15347
빔	-15348
샵	-15349
섭	-15350
섯	-15351
섹	-15352
쌈	-15353
씩	-15354
씬	-15355
얻	-15356
엎	-15357
쩜	-15358
쫌	-15359
찔	-15360
캬	-15361
컬	-15362
팀	-15363
팡	-15364
햇	-15365
훨	-15366
😆	-15367
+	-15368
E	-15369
ᄊ	-15370
걷	-15371
견	-15372
귱	-15373
낀	-15374
닁	-15375
닦	-15376
딨	-15377
뚝	-15378
뚱	-15379
뜌	-15380
몽	-15381
밑	-15382
법	-15383
센	-15384
쉑	-15385
쎄	-15386
쒸	-15387
씁	-15388
옙	-15389
옥	-15390
욕	-15391
젠	-15392
줭	-15393
쥰	-15394
짬	-15395
찡	-15396
첨	-15397
층	-15398
캠	-15399
콜	-15400
콤	-15401
팩	-15402
햤	-15403
활	-15404
😂	-15405
"	-15406
C	-15407
y	-15408
°	-15409
ᅧ	-15410
゚	-15411
굼	-15412
균	-15413
끈	-15414
납	-15415
넝	-15416
녕	-15417
눠	-15418
돠	-15419
됑	-15420
둑	-15421
둬	-15422
딥	-15423
떰	-15424
럭	-15425
룩	-15426
멘	-15427
벅	-15428
븐	-15429
빛	-15430
뻘	-15431
싹	-15432
쌉	-15433
썼	-15434
압	-15435
앱	-15436
앵	-15437
얄	-15438
쥴	-15439
쥼	-15440
쨌	-15441
쨘	-15442
찰	-15443
춍	-15444
쿰	-15445
팬	-15446
푼	-15447
핑	-15448
햌	-15449
헬	-15450
훈	-15451
훗	-15452
흘	-15453
힌	-15454
힛	-15455
힣	-15456
👍	-15457
%	-15458
&	-15459
*	-15460
B	-15461
D	-15462
H	-15463
I	-15464
J	-15465
R	-15466
Y	-15467
j	-15468
값	-15469
겄	-15470
궈	-15471
극	-15472
꿨	-15473
낚	-15474
넷	-15475
닮	-15476
땐	-15477
뜩	-15478
뜯	-15479
렛	-15480
릿	-15481
뮥	-15482
밉	-15483
빤	-15484
샐	-15485
쉼	-15486
썹	-15487
쓴	-15488
엇	-15489
엌	-15490
옸	-15491
잊	-15492
졋	-15493
짠	-15494
쭉	-15495
튼	-15496
틴	-15497
펜	-15498
폭	-15499
풉	-15500
헌	-15501
혈	-15502
혔	-15503
획	-15504
😄	-15505
M	-15506
N	-15507
`	-15508
긁	-15509
긋	-15510
껏	-15511
껐	-15512
꽁	-15513
뀨	-15514
녹	-15515
눌	-15516
눴	-15517
늬	-15518
댁	-15519
독	-15520
둔	-15521
뒹	-15522
딸	-15523
땜	-15524
떴	-15525
뗘	-15526
렷	-15527
령	-15528
릇	-15529
멤	-15530
벙	-15531
벼	-15532
붐	-15533
붕	-15534
뺀	-15535
뺏	-15536
뻗	-15537
뽑	-15538
뿐	-15539
샹	-15540
섬	-15541
쉣	-15542
싀	-15543
썰	-15544
엠	-15545
왠	-15546
웡	-15547
죤	-15548
짧	-15549
쨕	-15550
쩍	-15551
쩡	-15552
총	-15553
쵸	-15554
콩	-15555
쿨	-15556
킄	-15557
탑	-15558
텨	-15559
퉤	-15560
팍	-15561
팠	-15562
폴	-15563
픽	-15564
핌	-15565
<	-15566
O	-15567
T	-15568
W	-15569
́	-15570
ᄁ	-15571
ᄍ	-15572
♡	-15573
굶	-15574
귄	-15575
긱	-15576
깊	-15577
깰	-15578
깸	-15579
꼐	-15580
꾼	-15581
뀌	-15582
낄	-15583
냅	-15584
넴	-15585
뇬	-15586
눔	-15587
늕	-15588
댓	-15589
덤	-15590
뎀	-15591
뎜	-15592
돔	-15593
둣	-15594
듕	-15595
듬	-15596
딪	-15597
땠	-15598
땨	-15599
떳	-15600
뜬	-15601
랍	-15602
랙	-15603
럈	-15604
렬	-15605
례	-15606
롸	-15607
룽	-15608
뤄	-15609
률	-15610
릭	-15611
맑	-15612
맡	-15613
먀	-15614
멈	-15615
멜	-15616
멱	-15617
묻	-15618
뮝	-15619
밝	-15620
밴	-15621
뱅	-15622
봅	-15623
뵹	-15624
빕	-15625
뽕	-15626
뿅	-15627
삐	-15628
섰	-15629
셋	-15630
숟	-15631
싱	-15632
쌤	-15633
쏙	-15634
쏴	-15635
얶	-15636
얺	-15637
옵	-15638
왂	-15639
윰	-15640
젼	-15641
줍	-15642
즛	-15643
쩐	-15644
쪘	-15645
쪙	-15646
쭁	-15647
쭐	-15648
쮸	-15649
찐	-15650
찼	-15651
칩	-15652
콥	-15653
쿔	-15654
탓	-15655
턴	-15656
텔	-15657
톼	-15658
특	-15659
팥	-15660
폐	-15661
핳	-15662
헝	-15663
헷	-15664
혐	-15665
훌	-15666
흰	-15667
힉	-15668
💩	-15669
F	-15670
G	-15671
L	-15672
P	-15673
q	-15674
|	-15675
¿	-15676
๑	-15677
ᄄ	-15678
╹	-15679
○	-15680
❌	-15681
。	-15682
갇	-15683
갘	-15684
객	-15685
갤	-15686
겉	-15687
겟	-15688
곰	-15689
굥	-15690
권	-15691
귬	-15692
깄	-15693
깬	-15694
껄	-15695
껌	-15696
껍	-15697
꼰	-15698
꼴	-15699
꽂	-15700
꽃	-15701
꽈	-15702
꽉	-15703
뀐	-15704
끅	-15705
끗	-15706
끛	-15707
낑	-15708
낙	-15709
낟	-15710
낯	-15711
낰	-15712
넓	-15713
넙	-15714
넨	-15715
념	-15716
녱	-15717
높	-15718
뇸	-15719
뉘	-15720
뉸	-15721
닛	-15722
뎃	-15723
됩	-15724
됴	-15725
둠	-15726
뒀	-15727
딴	-15728
땅	-15729
떙	-15730
떵	-15731
떼	-15732
떽	-15733
똘	-15734
띵	-15735
랩	-15736
롯	-15737
뢔	-15738
룰	-15739
릐	-15740
맹	-15741
몀	-15742
뭇	-15743
므	-15744
밸	-15745
볍	-15746
뵈	-15747
뷸	-15748
빳	-15749
뻑	-15750
뻤	-15751
샆	-15752
샜	-15753
샷	-15754
섞	-15755
셀	-15756
숑	-15757
숩	-15758
쉐	-15759
슛	-15760
싄	-15761
쌌	-15762
쌩	-15763
쌰	-15764
썩	-15765
썸	-15766
쎈	-15767
쏭	-15768
쐬	-15769
씸	-15770
앜	-15771
얐	-15772
옳	-15773
옼	-15774
욘	-15775
윗	-15776
읕	-15777
잏	-15778
잦	-15779
쟉	-15780
쟝	-15781
젊	-15782
좁	-15783
죙	-15784
짖	-15785
쫄	-15786
쭘	-15787
찝	-15788
찹	-15789
챠	-15790
첵	-15791
촉	-15792
춘	-15793
췄	-15794
캔	-15795
컸	-15796
쿵	-15797
킁	-15798
턱	-15799
톤	-15800
튭	-15801
틈	-15802
틱	-15803
틸	-15804
팟	-15805
팸	-15806
펼	-15807
폼	-15808
퐁	-15809
푝	-15810
픔	-15811
핶	-15812
핼	-15813
햘	-15814
헀	-15815
협	-15816
흄	-15817
흫	-15818
👌	-15819
👶	-15820
💌	-15821
😅	-15822
😍	-15823
😎	-15824
😞	-15825
😢	-15826
😤	-15827
🙌	-15828
🤔	-15829
🦵	-15830
K	-15831
X	-15832
_	-15833
×	-15834
ω	-15835
Д	-15836
٩	-15837
۶	-15838
ᄡ	-15839
ᅪ	-15840
ᅫ	-15841
ᅯ	-15842
•	-15843
▽	-15844
◡	-15845
☺	-15846
♀	-15847
✌	-15848
갚	-15849
갬	-15850
갰	-15851
갼	-15852
걀	-15853
걈	-15854
걉	-15855
겈	-15856
겍	-15857
겐	-15858
겤	-15859
괘	-15860
괬	-15861
괭	-15862
굽	-15863
궅	-15864
궜	-15865
귝	-15866
귤	-15867
긑	-15868
깁	-15869
깍	-15870
깎	-15871
깟	-15872
꺅	-15873
꼇	-15874
꼽	-15875
꾹	-15876
꿍	-15877
뀜	-15878
뀸	-15879
낮	-15880
낶	-15881
냏	-15882
넢	-15883
넥	-15884
넫	-15885
넬	-15886
넼	-15887
녔	-15888
녭	-15889
놐	-15890
뇌	-15891
눙	-15892
눚	-15893
늑	-15894
늠	-15895
늨	-15896
닉	-15897
닙	-15898
닜	-15899
닾	-15900
닿	-15901
댄	-15902
댈	-15903
댐	-15904
댱	-15905
덟	-15906
덧	-15907
덯	-15908
덴	-15909
뎁	-15910
뎊	-15911
돕	-15912
돤	-15913
돵	-15914
돻	-15915
됮	-15916
둗	-15917
뒷	-15918
듦	-15919
듴	-15920
듷	-15921
듸	-15922
땍	-15923
땸	-15924
똬	-15925
똭	-15926
뚀	-15927
뚜	-15928
뚫	-15929
뛴	-15930
뜡	-15931
뜰	-15932
뜸	-15933
랔	-15934
랗	-15935
럮	-15936
렉	-15937
렐	-15938
뢩	-15939
룜	-15940
룬	-15941
뤈	-15942
뤘	-15943
뤠	-15944
륑	-15945
륭	-15946
릅	-15947
맊	-15948
맣	-15949
맵	-15950
맸	-15951
먗	-15952
뭖	-15953
뭫	-15954
뮬	-15955
믐	-15956
믜	-15957
및	-15958
밓	-15959
밭	-15960
밯	-15961
밷	-15962
뱉	-15963
뱌	-15964
벤	-15965
벧	-15966
벨	-15967
벳	-15968
볏	-15969
볕	-15970
봒	-15971
봣	-15972
뵐	-15973
뵙	-15974
뵜	-15975
뵤	-15976
붓	-15977
붖	-15978
붸	-15979
빅	-15980
빗	-15981
빚	-15982
빧	-15983
빰	-15984
빻	-15985
빽	-15986
뻡	-15987
뻥	-15988
뽜	-15989
뽝	-15990
뿜	-15991
쁠	-15992
쁨	-15993
삘	-15994
삽	-15995
샴	-15996
섣	-15997
솜	-15998
솨	-15999
